00000005
0000000E
FFFFFFFA
00000001
FFFFFFE5
FFFFFFF9
FFFFFFDD
FFFFFFE0
FFFFFFF4
FFFFFFC8
FFFFFFEE
FFFFFFF2
00000011
0000000C
FFFFFFF3
FFFFFFEB
FFFFFFFF
FFFFFFED
FFFFFFEE
FFFFFFEA
FFFFFFED
FFFFFFE2
FFFFFFEA
FFFFFFE5
FFFFFFE6
FFFFFFED
FFFFFFFA
FFFFFFE4
FFFFFFFD
FFFFFFEE
FFFFFFEC
FFFFFFF9
0000000A
FFFFFFF7
FFFFFFEC
FFFFFFEA
FFFFFFF3
FFFFFFEA
FFFFFFE3
00000012
FFFFFFEF
FFFFFFE9
FFFFFFE5
FFFFFFFF
FFFFFFF7
00000001
FFFFFFFC
0000000C
00000001
00000004
00000001
0000000E
0000001E
FFFFFFFE
FFFFFFF1
00000006
FFFFFFFA
00000000
FFFFFFF6
FFFFFFED
FFFFFFE5
FFFFFFF3
FFFFFFF3
00000001
FFFFFFEC
00000017
FFFFFFE6
FFFFFFFD
00000011
0000000C
00000007
FFFFFFE3
FFFFFFCE
FFFFFFCF
FFFFFFE6
FFFFFFFA
FFFFFFFF
FFFFFFF8
FFFFFFFA
FFFFFFEB
00000008
0000001F
0000000D
FFFFFFE8
FFFFFFE4
FFFFFFC7
FFFFFFDD
FFFFFFF5
0000000B
00000014
0000000B
FFFFFFDE
FFFFFFF9
00000011
00000014
00000003
FFFFFFF1
FFFFFFC5
FFFFFFDD
FFFFFFFB
FFFFFFF9
00000002
00000013
FFFFFFDA
FFFFFFE3
00000008
FFFFFFF4
FFFFFFFD
FFFFFFFF
FFFFFFF5
FFFFFFEA
FFFFFFF9
00000019
00000001
00000004
00000005
FFFFFFE9
FFFFFFE4
FFFFFFFB
FFFFFFF0
FFFFFFF7
00000009
0000000B
0000000F
00000010
00000007
0000000B
FFFFFFFD
FFFFFFE8
FFFFFFD5
00000001
00000003
FFFFFFF0
FFFFFFE5
FFFFFFFD
FFFFFFF8
FFFFFFF8
0000000B
FFFFFFFE
FFFFFFF5
00000006
FFFFFFFA
FFFFFFFE
FFFFFFF6
FFFFFFEE
00000007
00000002
FFFFFFFD
00000010
00000008
00000012
00000008
FFFFFFF6
FFFFFFE9
FFFFFFC5
FFFFFFFA
00000009
FFFFFFF7
FFFFFFE6
FFFFFFDB
FFFFFFC1
FFFFFFCB
FFFFFFB4
FFFFFFAD
FFFFFFC0
FFFFFFC3
FFFFFFE6
FFFFFFFC
0000000A
00000001
FFFFFFFF
00000000
FFFFFFF3
FFFFFFB4
FFFFFFE8
FFFFFFFB
FFFFFFD4
FFFFFFD8
FFFFFFCD
FFFFFFC5
FFFFFFD9
FFFFFFFE
FFFFFFF1
00000009
FFFFFFD1
FFFFFFEA
FFFFFFE4
FFFFFFFB
00000004
FFFFFFF7
FFFFFFE9
FFFFFFF0
FFFFFFF1
FFFFFFE8
FFFFFFDA
FFFFFFE7
FFFFFFEF
FFFFFFCD
FFFFFFF4
FFFFFFE2
00000000
00000004
FFFFFFFB
FFFFFFF3
FFFFFFF9
FFFFFFF6
0000001F
FFFFFFD7
FFFFFFFC
FFFFFFE2
FFFFFFE0
FFFFFFEA
0000000B
0000000D
00000006
00000004
00000017
00000020
0000001C
0000001B
FFFFFFFE
00000001
FFFFFFE8
FFFFFFEC
FFFFFFF6
00000002
FFFFFFFE
0000000A
0000000A
0000002E
00000038
0000002E
00000027
00000001
FFFFFFFC
00000008
00000002
0000000F
00000014
0000001A
00000023
FFFFFFF9
00000009
00000028
0000002A
0000002E
00000015
FFFFFFE9
00000005
00000012
0000001A
00000025
0000003E
00000034
FFFFFFE6
00000004
00000010
00000014
0000002C
0000001B
FFFFFFFC
0000000F
00000023
00000021
00000028
00000040
00000014
FFFFFFE2
FFFFFFFD
00000010
00000003
00000022
0000002C
FFFFFFFD
FFFFFFF5
00000017
0000001F
0000002C
0000003A
FFFFFFF9
FFFFFFF0
00000002
00000006
00000007
0000000D
0000000B
0000000E
FFFFFFFE
00000007
00000021
00000022
0000002D
00000015
FFFFFFF8
FFFFFFEE
FFFFFFF4
FFFFFFF9
00000011
FFFFFFF0
00000015
FFFFFFDE
00000009
00000020
0000001A
00000011
FFFFFFEA
FFFFFFE7
FFFFFFEC
FFFFFFE8
FFFFFFEE
FFFFFFDD
FFFFFFC1
FFFFFFF7
FFFFFFF2
FFFFFFE5
FFFFFFF4
00000002
FFFFFFEA
FFFFFFE1
FFFFFFDF
FFFFFFE1
FFFFFFE0
FFFFFFCF
FFFFFFDC
FFFFFFD2
00000001
FFFFFFE9
FFFFFFF0
FFFFFFD0
FFFFFFC6
FFFFFFBA
FFFFFFC3
FFFFFFBC
FFFFFFCC
FFFFFFC1
FFFFFFBB
FFFFFFC8
FFFFFFFC
FFFFFFF8
00000005
00000002
00000005
00000001
FFFFFFF9
0000000A
0000000D
00000008
FFFFFFFC
FFFFFFF8
FFFFFFFD
00000001
FFFFFFF8
FFFFFFF9
00000000
FFFFFFFC
00000003
00000001
00000013
00000011
00000003
00000004
0000000F
00000004
FFFFFFF9
00000001
0000000B
00000002
0000000E
00000002
FFFFFFFC
FFFFFFFA
FFFFFFF5
FFFFFFF4
FFFFFFFD
FFFFFFFC
00000001
FFFFFFFB
FFFFFFF9
00000005
FFFFFFFE
00000009
FFFFFFEF
0000000C
FFFFFFFA
FFFFFFDE
FFFFFFB2
FFFFFFE7
FFFFFFEC
FFFFFFF2
00000006
00000000
FFFFFFFB
FFFFFFF7
FFFFFFF7
00000006
00000001
00000001
00000002
FFFFFFDB
FFFFFFCF
FFFFFFD9
FFFFFFF5
00000004
00000005
00000003
FFFFFFF8
00000003
00000001
00000003
00000017
00000008
FFFFFFF4
FFFFFFE2
FFFFFFD9
FFFFFFF3
00000001
00000006
FFFFFFFD
FFFFFFEE
FFFFFFFC
FFFFFFEE
FFFFFFFA
00000011
00000020
0000000B
FFFFFFF9
FFFFFFFD
FFFFFFE7
00000006
FFFFFFFA
FFFFFFF9
FFFFFFFD
FFFFFFD4
FFFFFFD7
FFFFFFF2
0000001B
0000002E
0000000C
00000001
FFFFFFF4
FFFFFFF8
00000007
00000002
00000000
FFFFFFFF
FFFFFFD7
FFFFFFE0
0000000E
00000025
00000030
0000000B
00000007
00000000
FFFFFFF5
FFFFFFF9
FFFFFFFD
00000006
FFFFFFF8
FFFFFFE8
FFFFFFE1
FFFFFFEA
00000006
00000008
00000021
00000012
FFFFFFF8
0000000D
00000002
FFFFFFF9
FFFFFFFF
FFFFFFF7
FFFFFFF4
FFFFFFF4
FFFFFFCE
00000013
00000010
0000001C
0000001A
FFFFFFFB
FFFFFFFA
FFFFFFFD
00000005
0000000C
00000003
FFFFFFFA
FFFFFFE0
FFFFFFF1
FFFFFFEF
FFFFFFFC
00000002
00000015
FFFFFFFE
00000006
00000006
00000004
00000001
00000007
00000003
00000010
00000006
00000009
00000007
0000000F
00000003
FFFFFFFB
FFFFFFFA
FFFFFFF8
FFFFFFF9
FFFFFFF2
00000004
FFFFFFFE
0000000A
0000000B
00000016
0000001B
00000014
FFFFFFF9
FFFFFFFB
FFFFFFFD
00000004
00000004
FFFFFFF9
FFFFFFF8
FFFFFFF0
00000011
FFFFFFFF
FFFFFFF1
00000011
00000012
00000002
FFFFFFE0
FFFFFFEE
FFFFFFFB
FFFFFFFB
FFFFFFDF
FFFFFFEB
FFFFFFDC
FFFFFFD3
FFFFFFDB
FFFFFFEF
FFFFFFFA
00000003
FFFFFFF8
FFFFFFFA
FFFFFFDF
FFFFFFD7
00000005
FFFFFFEE
FFFFFFED
FFFFFFED
FFFFFFE6
FFFFFFF3
FFFFFFF9
FFFFFFF7
00000006
FFFFFFFE
00000008
FFFFFFFF
FFFFFFDE
00000028
00000006
FFFFFFEB
FFFFFFF2
00000009
FFFFFFEC
FFFFFFEC
00000008
00000002
00000003
FFFFFFF1
00000005
FFFFFFDE
00000018
FFFFFFEB
00000000
FFFFFFE3
FFFFFFF0
FFFFFFCF
FFFFFFEB
FFFFFFFB
FFFFFFF2
FFFFFFF3
FFFFFFF7
FFFFFFEC
FFFFFFE4
FFFFFFFA
00000007
FFFFFFF6
FFFFFFD6
FFFFFFE7
FFFFFFCA
FFFFFFC8
FFFFFFE3
FFFFFFDC
FFFFFFFA
FFFFFFFE
FFFFFFF1
FFFFFFF0
FFFFFFDD
FFFFFFF9
FFFFFFFD
FFFFFFF6
FFFFFFDD
FFFFFFEA
FFFFFFD6
FFFFFFBB
FFFFFFD7
FFFFFFFA
FFFFFFF5
FFFFFFFB
0000000D
FFFFFFF0
00000002
FFFFFFFE
FFFFFFEB
FFFFFFFC
FFFFFFC2
FFFFFFC6
FFFFFFEC
FFFFFFFE
FFFFFFF1
FFFFFFF9
FFFFFFFD
00000009
FFFFFFF4
FFFFFFF0
FFFFFFEF
FFFFFFF9
0000000F
00000003
FFFFFFF7
FFFFFFEC
FFFFFFF2
FFFFFFF8
FFFFFFF1
FFFFFFFC
FFFFFFFB
00000007
00000003
FFFFFFFA
FFFFFFF5
0000000D
0000001B
00000009
FFFFFFED
FFFFFFF3
FFFFFFEE
FFFFFFF2
FFFFFFEF
00000000
FFFFFFF5
FFFFFFE9
0000000C
00000010
0000001B
00000026
00000021
00000012
00000006
FFFFFFEE
FFFFFFF4
FFFFFFE8
FFFFFFD5
00000000
FFFFFFFA
FFFFFFF0
FFFFFFF2
FFFFFFF5
FFFFFFF9
00000008
FFFFFFF9
FFFFFFE0
FFFFFFCA
FFFFFFBF
FFFFFFEE
FFFFFFFD
00000001
00000001
00000001
FFFFFFFA
FFFFFFF3
FFFFFFF8
00000017
00000022
00000022
FFFFFFF1
00000001
FFFFFFEE
FFFFFFFB
00000009
00000002
00000014
FFFFFFF0
FFFFFFE3
FFFFFFF3
FFFFFFFF
00000022
00000009
00000010
FFFFFFFF
FFFFFFF5
FFFFFFE2
0000000B
00000027
FFFFFFF6
FFFFFFD0
FFFFFFC3
FFFFFFD8
FFFFFFFC
FFFFFFE7
FFFFFFF6
00000016
0000000B
00000003
FFFFFFEB
FFFFFFF2
00000000
FFFFFFF1
FFFFFFDF
FFFFFFED
FFFFFFD7
FFFFFFE2
FFFFFFE0
FFFFFFE5
FFFFFFFF
FFFFFFF8
FFFFFFDF
FFFFFFD6
FFFFFFEE
FFFFFFED
FFFFFFFC
FFFFFFF6
FFFFFFFE
FFFFFFF4
FFFFFFE7
FFFFFFF0
FFFFFFDB
FFFFFFE5
FFFFFFFF
FFFFFFE5
FFFFFFDF
FFFFFFF4
FFFFFFEC
FFFFFFF4
FFFFFFEB
00000005
FFFFFFE1
FFFFFFFF
FFFFFFEC
FFFFFFDF
FFFFFFF7
FFFFFFEF
FFFFFFF3
FFFFFFFB
FFFFFFFE
00000008
00000008
00000012
FFFFFFEC
FFFFFFF0
FFFFFFEE
FFFFFFE8
FFFFFFED
FFFFFFE6
FFFFFFD6
FFFFFFEA
FFFFFFF5
00000017
FFFFFFFF
0000000C
FFFFFFFF
FFFFFFDE
FFFFFFE7
FFFFFFEC
FFFFFFF8
FFFFFFB3
FFFFFFD1
FFFFFFB9
FFFFFFD0
00000015
00000004
FFFFFFF6
FFFFFFE7
FFFFFFE6
FFFFFFCB
FFFFFFC8
FFFFFFF6
FFFFFFD5
FFFFFFDA
FFFFFFFF
FFFFFFFF
FFFFFFF9
00000011
FFFFFFF5
FFFFFFDC
00000010
00000006
FFFFFFEE
FFFFFFED
FFFFFFFF
FFFFFFE6
00000009
0000000D
00000015
00000009
0000001F
00000014
0000001F
00000034
00000008
00000000
FFFFFFD6
FFFFFFD1
FFFFFFDD
FFFFFFF9
FFFFFFEB
00000009
FFFFFFF6
00000027
00000006
0000001E
00000009
0000000B
FFFFFFFD
FFFFFFEB
FFFFFFE9
FFFFFFF0
0000001C
00000013
FFFFFFF6
0000000D
00000002
00000002
FFFFFFD3
FFFFFFF4
00000002
FFFFFFE8
FFFFFFDE
FFFFFFEE
FFFFFFBF
FFFFFFF2
FFFFFFE4
FFFFFFE5
FFFFFFF7
FFFFFFFD
00000007
FFFFFFF5
FFFFFFE6
FFFFFFA6
FFFFFFE2
FFFFFFB5
00000003
00000003
FFFFFFFE
FFFFFFE3
FFFFFFDE
FFFFFFDF
FFFFFFDB
00000010
0000000E
00000018
0000000E
00000022
00000008
0000001B
0000002D
00000020
0000000D
0000001C
0000000A
FFFFFFCD
FFFFFFF0
FFFFFFF9
00000013
FFFFFFF5
FFFFFFFB
0000001A
0000001A
00000022
00000014
0000002E
00000020
00000017
FFFFFFD8
FFFFFFDB
FFFFFFF2
FFFFFFFA
FFFFFFEA
FFFFFFE8
FFFFFFF1
FFFFFFFC
00000006
FFFFFFFA
00000013
0000001B
00000012
FFFFFFCB
FFFFFFE1
FFFFFFDC
FFFFFFE9
FFFFFFDB
FFFFFFBB
FFFFFFCA
FFFFFFEE
0000000D
00000019
00000013
00000012
FFFFFFFB
FFFFFFC4
FFFFFFCF
00000015
FFFFFFEE
FFFFFFD7
FFFFFFB8
FFFFFFC9
FFFFFFFE
0000001C
00000020
00000017
00000003
FFFFFFE9
FFFFFFC0
FFFFFFCF
0000002B
FFFFFFF7
FFFFFFE6
00000002
FFFFFFCA
00000015
00000030
00000022
FFFFFFF8
FFFFFFE9
FFFFFFE1
FFFFFFDF
00000006
00000001
FFFFFFC9
FFFFFFCB
00000018
FFFFFFEE
00000019
0000002A
0000000B
FFFFFFE4
FFFFFFD9
FFFFFFD3
FFFFFFF3
00000002
FFFFFFCD
FFFFFF8A
FFFFFFB6
FFFFFFE9
FFFFFFE8
00000006
00000012
FFFFFFEA
FFFFFFFB
FFFFFFEC
FFFFFFFA
0000000E
FFFFFFE9
FFFFFFEF
FFFFFFA8
FFFFFFC3
FFFFFFDC
FFFFFFF9
FFFFFFF5
00000007
00000004
00000017
0000000C
00000001
0000001E
FFFFFFE9
FFFFFFF4
0000000E
00000000
00000009
FFFFFFFF
FFFFFFF9
00000013
0000001D
00000015
00000018
FFFFFFEE
00000022
FFFFFFFE
FFFFFFE2
00000026
00000011
00000022
00000011
00000019
00000013
0000000D
00000015
00000005
FFFFFFE1
FFFFFFFB
00000004
FFFFFFDD
FFFFFFEB
FFFFFFCB
FFFFFFF6
FFFFFFC7
FFFFFFE4
FFFFFFD7
FFFFFFB4
FFFFFFE4
FFFFFFE5
FFFFFFCB
FFFFFFE2
0000000E
00000004
00000005
FFFFFFFF
00000003
00000010
FFFFFFFD
00000004
00000011
0000000A
0000000C
00000002
00000003
00000012
00000008
FFFFFFFE
00000001
0000000C
00000013
00000001
00000017
00000013
00000005
00000007
0000000F
0000000A
0000000D
FFFFFFFF
00000001
00000005
00000008
00000013
00000026
0000001B
0000000E
00000008
00000004
00000004
00000003
0000000A
00000003
00000001
00000007
0000000C
0000000F
0000002C
0000004B
00000030
00000015
0000000C
0000000A
00000003
00000012
00000006
00000003
00000001
00000009
00000022
00000031
0000004E
00000022
0000000C
0000000C
00000009
00000012
00000000
0000000B
0000000B
0000000F
00000014
0000002C
0000001B
0000001B
00000006
00000012
00000003
0000000B
00000003
00000008
00000007
00000012
0000000A
0000001E
00000025
0000000F
FFFFFFF1
00000008
00000018
0000000F
00000010
00000008
00000001
0000000C
0000000B
00000004
00000022
00000033
00000005
00000027
00000020
00000010
00000006
0000000F
00000003
00000001
00000009
00000014
00000011
00000018
00000038
00000016
0000003D
0000000C
00000003
00000002
00000012
FFFFFFFF
00000008
00000011
00000011
00000011
00000016
00000036
00000031
0000002D
FFFFFFF5
FFFFFFFD
00000004
00000001
00000005
0000000B
00000010
00000005
0000000B
00000018
00000028
0000002B
0000000E
FFFFFFFC
00000007
FFFFFFFA
0000000C
0000000A
00000003
00000006
00000009
00000007
00000004
00000014
FFFFFFFA
0000000A
FFFFFFFE
00000004
00000004
00000010
0000000A
0000000E
00000002
00000012
00000000
0000000F
0000000C
0000000C
0000001C
0000000F
0000000B
FFFFFFFF
00000000
0000000A
00000001
FFFFFFFF
00000000
00000003
00000008
00000004
00000005
FFFFFFE5
FFFFFFFA
00000007
FFFFFFF9
00000002
FFFFFFF9
0000000A
0000000A
FFFFFFFF
FFFFFFFC
FFFFFFE7
FFFFFFE8
FFFFFFC0
FFFFFFDE
FFFFFFDA
FFFFFFC0
FFFFFFD8
FFFFFFE6
FFFFFFF3
00000017
00000036
0000000C
FFFFFFFB
FFFFFFFB
FFFFFFCD
FFFFFFC3
FFFFFFB2
FFFFFFBC
FFFFFFD8
FFFFFFDF
FFFFFFE5
FFFFFFED
FFFFFFF1
0000000F
FFFFFFFD
FFFFFFE0
FFFFFFF8
FFFFFFDC
FFFFFFBA
FFFFFFA3
FFFFFF9D
FFFFFFE1
FFFFFFEF
FFFFFFD6
FFFFFFE0
FFFFFFE9
FFFFFFEA
00000015
00000003
00000003
FFFFFFF3
FFFFFFDA
FFFFFFC9
FFFFFFB4
FFFFFFDE
00000000
FFFFFFF2
FFFFFFDD
FFFFFFF4
FFFFFFED
FFFFFFF8
FFFFFFEE
FFFFFFFB
FFFFFFFB
FFFFFFE3
FFFFFFCA
FFFFFFD3
00000010
00000003
00000000
FFFFFFED
00000002
00000005
FFFFFFF3
0000000C
FFFFFFE0
FFFFFFE2
FFFFFFD3
FFFFFFCD
FFFFFFD2
00000002
FFFFFFFB
FFFFFFF4
FFFFFFF0
00000000
00000009
00000008
0000000C
FFFFFFDB
FFFFFFEC
FFFFFFE0
FFFFFFD1
FFFFFFD9
FFFFFFD0
FFFFFFEF
0000000F
00000009
00000000
FFFFFFEC
FFFFFFED
FFFFFFF5
FFFFFFDA
FFFFFFE7
FFFFFFFD
FFFFFFEC
FFFFFFC4
FFFFFFEF
0000000C
FFFFFFF7
FFFFFFF5
FFFFFFF9
FFFFFFC8
FFFFFFFC
0000000F
FFFFFFE6
FFFFFFEC
FFFFFFF2
FFFFFFD9
FFFFFFFE
00000017
0000001B
00000009
00000024
0000000D
00000031
0000001D
00000023
00000000
FFFFFFED
FFFFFFEA
00000006
00000022
0000002C
00000013
0000000E
00000025
0000000C
0000003D
0000001F
00000013
00000003
FFFFFFF8
FFFFFFFB
00000010
00000014
00000015
00000004
FFFFFFF8
00000014
FFFFFFF3
FFFFFFDD
FFFFFFEC
00000001
FFFFFFFA
00000005
FFFFFFFD
FFFFFFF2
FFFFFFF7
0000000D
FFFFFFF5
FFFFFFF8
FFFFFFFF
00000006
FFFFFFF6
FFFFFFFB
0000000F
0000001D
0000001F
00000002
FFFFFFE2
FFFFFFEF
FFFFFFE0
FFFFFFC8
00000009
00000009
FFFFFFF8
FFFFFFE9
00000014
00000024
00000017
00000013
0000000B
FFFFFFF1
FFFFFFEA
FFFFFFE2
FFFFFFD5
FFFFFFE7
FFFFFFE4
FFFFFFFC
00000001
00000004
00000004
0000000A
00000004
FFFFFFF4
FFFFFFFF
00000000
FFFFFFE5
FFFFFFE7
FFFFFFFA
FFFFFFF2
0000001A
0000000F
00000003
00000001
00000006
FFFFFFFF
FFFFFFF3
FFFFFFE1
FFFFFFDB
FFFFFFD2
FFFFFFF5
FFFFFFF8
FFFFFFD6
00000009
00000013
00000014
00000003
00000003
FFFFFFF7
FFFFFFDC
FFFFFFE2
FFFFFFEF
FFFFFFEC
FFFFFFFC
FFFFFFF1
00000008
FFFFFFFC
00000008
00000005
00000003
FFFFFFFC
FFFFFFE5
FFFFFFD1
FFFFFFD2
FFFFFFE7
FFFFFFF6
00000006
0000000B
00000024
FFFFFFE1
FFFFFFF9
0000001C
0000002F
0000002C
00000020
00000001
00000004
00000011
FFFFFFF7
00000005
0000000C
00000014
FFFFFFFC
00000015
0000003A
00000039
00000032
0000002A
00000021
00000017
00000029
0000001D
00000015
0000001C
0000001F
00000028
00000021
0000000E
00000026
00000026
0000002F
0000002A
00000014
00000004
00000007
00000004
0000000E
00000019
00000008
00000009
00000002
0000000D
0000001A
00000022
00000013
00000021
00000002
00000002
0000000D
0000000D
00000022
0000001D
00000001
FFFFFFF6
00000000
00000006
FFFFFFFB
00000005
00000004
00000006
00000023
00000005
0000003B
00000027
FFFFFFF7
FFFFFFF2
FFFFFFF4
FFFFFFFF
FFFFFFF7
00000006
FFFFFFEC
FFFFFFE9
00000006
0000001A
0000001E
00000016
0000000C
FFFFFFD6
FFFFFFC1
FFFFFFD7
FFFFFFCC
FFFFFFB3
FFFFFFD5
FFFFFFDD
FFFFFFD9
FFFFFFE4
FFFFFFDE
FFFFFFF3
00000001
00000004
FFFFFFF7
FFFFFFE1
FFFFFFE0
FFFFFFCE
00000015
0000001F
FFFFFFF4
FFFFFFF2
0000000E
FFFFFFEB
FFFFFFCF
FFFFFFF3
00000011
FFFFFFF4
FFFFFFFC
FFFFFFD3
FFFFFFDC
FFFFFFE4
FFFFFFFC
FFFFFFF1
FFFFFFEA
FFFFFFF2
FFFFFFEE
FFFFFFFF
00000004
FFFFFFF3
00000016
FFFFFFE8
00000000
FFFFFFD6
FFFFFFDB
FFFFFFE5
00000004
FFFFFFF8
FFFFFFFB
00000005
00000016
00000009
00000001
00000010
00000011
0000000F
FFFFFFD4
FFFFFFDD
FFFFFFFA
FFFFFFFB
FFFFFFFD
00000003
0000000C
00000019
0000001B
FFFFFFC9
00000015
FFFFFFFE
FFFFFFE7
FFFFFFBF
FFFFFFC1
FFFFFFE4
FFFFFFE7
FFFFFFFD
00000017
0000001D
00000021
0000001A
FFFFFFDB
FFFFFFDA
FFFFFFD5
FFFFFFC4
FFFFFF99
FFFFFF9A
FFFFFFAC
FFFFFFD2
FFFFFFED
00000006
0000001C
0000001A
FFFFFFFA
00000017
FFFFFFDB
FFFFFFDB
FFFFFFB4
FFFFFFA0
FFFFFFAB
FFFFFFCE
FFFFFFF5
FFFFFFFB
FFFFFFF1
00000002
FFFFFFEC
FFFFFFC6
FFFFFFEF
FFFFFFFA
00000015
FFFFFFEB
FFFFFFD9
FFFFFFE8
00000006
00000015
00000009
FFFFFFEE
FFFFFFDC
FFFFFFC9
FFFFFFB5
FFFFFFF1
FFFFFFF8
00000017
0000000B
00000007
00000010
00000018
0000001E
FFFFFFFD
FFFFFFE8
FFFFFFD3
FFFFFFC9
FFFFFFC3
FFFFFFE6
FFFFFFF3
00000015
0000000C
00000010
00000018
0000000E
FFFFFFFE
FFFFFFF3
FFFFFFED
FFFFFFE6
FFFFFFDA
FFFFFFE0
FFFFFFCE
FFFFFFDF
00000033
00000020
0000001B
0000000A
FFFFFFF4
FFFFFFE3
FFFFFFED
FFFFFFFA
00000005
FFFFFFEB
FFFFFFE8
FFFFFFF4
FFFFFFFB
00000011
FFFFFFF8
00000003
FFFFFFF1
FFFFFFE0
FFFFFFE5
FFFFFFE1
0000000B
FFFFFFFB
FFFFFFF1
00000000
00000005
FFFFFFF7
FFFFFFBD
FFFFFF90
FFFFFFAF
FFFFFF9A
FFFFFFAE
FFFFFFAD
FFFFFFC7
FFFFFFDE
FFFFFFE6
FFFFFFF7
FFFFFFE0
00000018
00000006
00000006
FFFFFFFA
00000004
FFFFFFF7
FFFFFFF7
00000004
FFFFFFFD
FFFFFFFE
FFFFFFFD
FFFFFFFC
FFFFFFFB
FFFFFFF5
FFFFFFFB
00000001
FFFFFFF8
FFFFFFFE
FFFFFFF8
FFFFFFE5
FFFFFFF3
FFFFFFF8
FFFFFFF3
00000008
FFFFFFFC
FFFFFFFF
00000006
FFFFFFFB
FFFFFFFA
FFFFFFFD
00000003
FFFFFFF2
FFFFFFF1
FFFFFFFC
FFFFFFF8
00000002
FFFFFFFC
FFFFFFF9
00000006
FFFFFFF7
FFFFFFF6
FFFFFFFF
FFFFFFFC
00000010
0000000B
00000005
00000001
FFFFFFFC
0000001C
FFFFFFF5
00000003
FFFFFFFD
00000001
FFFFFFFF
00000000
0000000F
00000023
00000019
0000001C
0000002A
00000019
FFFFFFFB
FFFFFFF2
FFFFFFF2
00000003
00000001
00000000
00000005
00000012
0000001E
00000019
00000023
0000003D
0000003C
0000000F
FFFFFFED
FFFFFFFA
FFFFFFF7
FFFFFFFE
00000000
0000000C
0000000C
0000000F
0000000F
0000000E
00000011
0000002B
0000002E
00000019
0000000A
0000000A
FFFFFFF2
00000004
00000004
FFFFFFF7
0000000A
FFFFFFFD
00000001
FFFFFFF6
0000002C
00000028
0000000C
00000001
00000004
FFFFFFFC
FFFFFFFB
FFFFFFFC
FFFFFFF9
FFFFFFFB
FFFFFFEE
FFFFFFF0
00000003
00000015
0000000E
00000015
00000006
00000005
FFFFFFEC
FFFFFFF7
FFFFFFF5
FFFFFFF1
FFFFFFF9
00000004
FFFFFFF6
FFFFFFFC
FFFFFFE6
FFFFFFE4
00000000
FFFFFFF0
FFFFFFF0
00000005
FFFFFFF9
FFFFFFFF
00000000
0000000C
00000003
00000004
0000000A
FFFFFFEF
FFFFFFE2
FFFFFFE5
FFFFFFEF
FFFFFFF9
FFFFFFFB
00000001
FFFFFFF4
00000000
00000003
FFFFFFF2
00000004
00000003
FFFFFFEC
FFFFFFE0
FFFFFFEF
FFFFFFFE
00000001
FFFFFFF6
00000008
FFFFFFFB
FFFFFFFA
FFFFFFFA
00000005
0000000C
00000000
FFFFFFFB
00000003
FFFFFFFC
FFFFFFFC
FFFFFFF6
00000001
FFFFFFF7
FFFFFFFB
FFFFFFFD
FFFFFFF5
FFFFFFFA
00000008
0000000C
00000029
FFFFFFF5
FFFFFFE1
FFFFFFF1
00000000
FFFFFFF4
FFFFFFFE
FFFFFFF3
FFFFFFFE
00000041
0000002F
0000002A
00000034
00000020
FFFFFFFE
FFFFFFEF
FFFFFFEC
FFFFFFE5
FFFFFFF4
FFFFFFFE
FFFFFFED
0000000B
00000018
00000015
0000000C
0000000B
00000015
0000001B
00000011
FFFFFFE9
FFFFFFAD
FFFFFFE0
0000000D
00000006
0000000B
00000010
00000012
00000014
00000019
00000019
00000005
FFFFFFF5
FFFFFFDE
FFFFFFC7
FFFFFFF1
0000000A
00000011
00000000
00000007
00000024
00000012
0000002A
00000019
FFFFFFFB
FFFFFFE3
FFFFFFF1
FFFFFFEE
FFFFFFEB
FFFFFFF1
00000014
0000000F
00000016
0000001A
00000000
FFFFFFFE
00000004
FFFFFFEB
FFFFFFE1
FFFFFFE8
00000003
00000013
FFFFFFD3
FFFFFFED
FFFFFFFA
00000013
00000002
FFFFFFFD
FFFFFFE1
FFFFFFDA
FFFFFFCE
FFFFFFD7
FFFFFFEC
00000038
00000044
FFFFFFF1
FFFFFFE0
FFFFFFFC
FFFFFFF8
FFFFFFD8
FFFFFFE5
FFFFFFEE
FFFFFFEC
FFFFFFD6
FFFFFFFC
0000000E
0000003D
00000041
00000016
00000012
0000000B
FFFFFFD5
FFFFFFE9
FFFFFFFA
00000000
FFFFFFF8
00000006
00000021
0000002A
00000038
0000001C
FFFFFFFF
FFFFFFF9
FFFFFFED
FFFFFFF5
FFFFFFF3
FFFFFFF7
FFFFFFFF
00000025
00000022
00000033
00000039
00000021
00000002
00000010
FFFFFFF4
FFFFFFF4
FFFFFFF8
FFFFFFFE
00000002
FFFFFFFA
0000000F
00000033
0000002D
00000020
0000001E
FFFFFFFE
FFFFFFFB
00000000
0000000C
00000008
0000000D
FFFFFFFF
FFFFFFF7
00000008
0000001E
00000028
0000001F
00000016
FFFFFFFD
FFFFFFD7
FFFFFFC5
FFFFFFDA
FFFFFFDF
FFFFFFF8
00000005
0000000B
00000010
0000000C
0000000E
FFFFFFF7
00000014
00000016
FFFFFFF9
00000000
FFFFFFF4
FFFFFFF6
00000009
FFFFFFF9
FFFFFFD8
FFFFFFE1
FFFFFFE6
FFFFFFDF
00000023
FFFFFFD0
FFFFFFF0
00000003
0000000D
00000012
00000009
00000002
0000000B
00000000
00000001
FFFFFFFC
FFFFFFFE
FFFFFFEA
0000000C
FFFFFFEF
00000010
00000011
00000012
FFFFFFFC
00000015
0000000D
00000002
FFFFFFF9
FFFFFFE8
FFFFFFEC
FFFFFFF3
FFFFFFF6
0000000A
0000000F
00000025
0000000B
0000000E
0000000F
00000016
00000015
0000000B
FFFFFFFE
FFFFFFEA
FFFFFFED
FFFFFFF4
FFFFFFB8
00000002
00000023
0000000D
0000002A
00000021
0000002D
0000002A
00000034
0000001F
00000017
FFFFFFFE
FFFFFFBF
FFFFFFA8
00000018
0000000A
00000003
00000018
0000002E
00000039
0000003D
00000034
00000020
00000016
FFFFFFFC
FFFFFFA0
FFFFFFCE
00000007
FFFFFFF2
FFFFFFE3
FFFFFFF9
00000008
00000012
0000000E
0000000F
00000001
FFFFFFF2
FFFFFFE2
FFFFFFDA
00000000
00000002
FFFFFFFF
FFFFFFC5
FFFFFFBC
FFFFFFCB
FFFFFFE2
FFFFFFFF
FFFFFFF0
FFFFFFED
FFFFFFF9
FFFFFFE7
00000011
0000000D
00000009
FFFFFFFF
FFFFFFE4
FFFFFFD3
FFFFFFC6
FFFFFFE5
FFFFFFE7
FFFFFFFA
00000006
FFFFFFF5
00000005
FFFFFFF0
FFFFFFCC
00000019
0000001D
FFFFFFFC
FFFFFFF6
FFFFFFF0
FFFFFFFE
FFFFFFFB
00000005
0000000F
00000006
00000006
FFFFFFE7
FFFFFFCA
00000008
0000000A
00000003
FFFFFFFE
00000004
0000000A
0000000C
00000016
0000000E
00000007
FFFFFFF0
FFFFFFCD
FFFFFFE1
00000026
00000009
0000000B
00000017
00000024
00000014
0000001A
0000001C
00000015
00000004
FFFFFFF8
FFFFFFF0
00000014
00000000
FFFFFFFB
0000001E
0000002C
0000003E
0000003F
00000030
0000002A
0000002B
0000002D
FFFFFFEF
FFFFFFE1
FFFFFFFE
FFFFFFF0
FFFFFFDF
0000001F
00000022
FFFFFFD4
FFFFFFF4
FFFFFFE6
00000004
0000000A
00000005
00000006
FFFFFFB1
FFFFFFCC
FFFFFFED
FFFFFFF8
00000017
0000000F
FFFFFFF9
0000000F
00000007
00000008
00000007
00000017
00000004
00000012
FFFFFF80
FFFFFFF0
00000006
FFFFFFF6
FFFFFFE7
FFFFFFD5
FFFFFFE5
FFFFFFF0
FFFFFFF0
FFFFFFFE
0000000F
00000010
00000016
00000010
FFFFFFEC
FFFFFFFA
FFFFFFF9
FFFFFFD3
FFFFFFC4
FFFFFFC8
FFFFFFE6
FFFFFFFF
00000001
00000014
00000013
00000013
FFFFFFE8
FFFFFFE9
0000001A
FFFFFFE4
FFFFFFD7
FFFFFFAF
FFFFFFAD
FFFFFFD6
FFFFFFF3
FFFFFFFF
00000005
00000006
0000000D
FFFFFF7E
FFFFFFED
0000000B
FFFFFFDA
FFFFFFD1
FFFFFFCA
FFFFFFBE
FFFFFFE0
FFFFFFF0
FFFFFFF8
FFFFFFE1
FFFFFFDC
FFFFFFE1
FFFFFFB8
00000006
FFFFFFDC
FFFFFFEC
FFFFFFE5
FFFFFFDF
FFFFFFD0
FFFFFFFA
FFFFFFF2
FFFFFFE5
FFFFFFEC
FFFFFFD6
FFFFFFD2
FFFFFFDC
00000002
FFFFFFF9
FFFFFFE9
FFFFFFDB
FFFFFFB9
FFFFFFC9
FFFFFFD7
FFFFFFD9
FFFFFFE7
FFFFFFFF
00000001
00000005
00000004
00000012
00000023
FFFFFFF2
FFFFFFD2
FFFFFFB3
FFFFFFA8
FFFFFFBB
FFFFFFDE
00000003
00000007
00000008
00000011
00000002
FFFFFFFB
00000012
FFFFFFF2
FFFFFFDF
FFFFFFD5
FFFFFFBE
FFFFFFD0
FFFFFFFF
0000000E
00000006
0000000D
00000000
FFFFFFFA
00000005
00000002
FFFFFFE7
FFFFFFEA
FFFFFFD2
FFFFFFD7
FFFFFFEF
FFFFFFF5
FFFFFFF9
00000004
FFFFFFFB
00000006
FFFFFFDE
00000005
00000008
FFFFFFEA
FFFFFFE7
FFFFFFDE
FFFFFFE3
FFFFFFF0
FFFFFFE9
FFFFFFF2
00000006
FFFFFFEF
0000000C
FFFFFFEB
00000008
00000005
FFFFFFF4
FFFFFFFB
FFFFFFF4
FFFFFFFF
00000013
FFFFFFE6
FFFFFFFC
FFFFFFED
FFFFFFF9
FFFFFFF7
FFFFFFDE
FFFFFFFC
FFFFFFFD
FFFFFFFE
FFFFFFF3
FFFFFFF4
FFFFFFFD
00000001
00000001
FFFFFFFA
FFFFFFF3
FFFFFFFF
FFFFFFF6
FFFFFFF4
00000000
FFFFFFF6
FFFFFFF3
FFFFFFF2
FFFFFFEF
FFFFFFF8
00000002
FFFFFFF4
FFFFFFF8
FFFFFFF1
FFFFFFF2
FFFFFFFD
00000002
FFFFFFF6
FFFFFFF8
FFFFFFFC
FFFFFFF7
FFFFFFF5
FFFFFFE9
FFFFFFDF
FFFFFFCB
FFFFFFE6
FFFFFFF4
FFFFFFE9
FFFFFFF4
FFFFFFF6
FFFFFFF9
FFFFFFFD
FFFFFFF4
FFFFFFF8
00000008
00000009
FFFFFFD1
FFFFFFE2
FFFFFFF0
FFFFFFF7
00000001
FFFFFFFD
FFFFFFF2
FFFFFFF6
FFFFFFF2
FFFFFFF9
0000001D
0000002C
0000001A
00000011
00000004
00000006
00000013
0000000F
FFFFFFFF
00000001
FFFFFFF8
FFFFFFF1
0000000E
00000022
00000035
00000028
00000017
0000001B
0000001E
0000000C
0000000A
FFFFFFF6
FFFFFFFD
FFFFFFFB
FFFFFFF6
00000000
0000001B
00000039
0000001F
FFFFFFE4
FFFFFFE9
FFFFFFF8
00000008
0000000E
00000001
00000002
FFFFFFF1
FFFFFFFE
FFFFFFFB
0000000B
00000017
00000016
FFFFFFED
FFFFFFEC
FFFFFFF9
FFFFFFEE
FFFFFFFC
FFFFFFF1
00000001
FFFFFFFE
FFFFFFF3
FFFFFFF4
00000004
FFFFFFFF
FFFFFFFD
FFFFFFFD
FFFFFFFB
FFFFFFF4
FFFFFFF0
FFFFFFF1
FFFFFFFA
FFFFFFFE
FFFFFFF6
FFFFFFEF
FFFFFFF6
FFFFFFEF
FFFFFFF5
FFFFFFFC
0000000D
FFFFFFF6
00000016
00000012
00000003
FFFFFFF8
FFFFFFFF
00000000
FFFFFFFB
FFFFFFE9
FFFFFFE3
FFFFFFF1
00000002
00000019
00000019
00000010
FFFFFFFA
00000006
FFFFFFF4
FFFFFFFB
FFFFFFF3
FFFFFFF0
FFFFFFF2
FFFFFFF8
FFFFFFF1
FFFFFFFD
00000017
0000000F
FFFFFFFB
00000003
FFFFFFFD
00000002
FFFFFFFC
FFFFFFFB
FFFFFFFA
FFFFFFFB
FFFFFFED
FFFFFFEF
FFFFFFF9
FFFFFFF9
FFFFFFFC
FFFFFFF7
FFFFFFFA
FFFFFFF4
FFFFFFFC
FFFFFFF4
FFFFFFF5
FFFFFFF9
FFFFFFF9
00000002
FFFFFFFB
FFFFFFF8
FFFFFFF7
FFFFFFFC
00000006
00000005
FFFFFFF6
00000004
FFFFFFFE
00000005
0000001D
00000010
0000000C
00000019
0000002D
00000047
00000023
0000000F
FFFFFFFE
FFFFFFDE
FFFFFFE3
FFFFFFEB
0000000F
00000013
00000016
0000001A
00000018
0000002A
00000019
00000012
00000004
00000000
FFFFFFEE
FFFFFFD1
FFFFFFE9
00000007
0000000A
00000018
00000010
00000014
00000021
0000001D
00000008
FFFFFFF7
FFFFFFDF
FFFFFFD1
FFFFFFE8
FFFFFFF7
FFFFFFFF
00000009
00000013
0000000C
0000001D
00000029
0000000F
FFFFFFFC
FFFFFFF6
FFFFFFE5
FFFFFFEB
FFFFFFE9
FFFFFFC3
0000001A
00000001
FFFFFFFE
0000000D
FFFFFFFF
00000006
00000001
00000002
0000000A
00000012
00000010
FFFFFFFD
FFFFFFBF
FFFFFFF3
FFFFFFF5
FFFFFFE2
FFFFFFEF
FFFFFFF7
00000004
00000010
0000001F
0000002A
00000023
FFFFFFFB
FFFFFFD9
FFFFFFC3
FFFFFFF9
FFFFFFE3
FFFFFFDD
FFFFFFF9
00000009
00000014
0000002D
0000003D
00000024
00000009
FFFFFFE5
FFFFFFC4
FFFFFFE9
00000018
0000000A
00000007
0000000A
00000017
00000033
0000002E
0000001A
0000000D
FFFFFFF1
FFFFFFD0
FFFFFFDB
FFFFFFF6
0000001C
0000001C
00000018
00000011
00000015
0000001A
00000020
00000019
00000008
FFFFFFE0
FFFFFFC9
FFFFFFE7
FFFFFFDE
FFFFFFFE
00000008
00000024
00000023
00000010
00000009
00000014
00000009
FFFFFFF5
FFFFFFE8
FFFFFFE4
FFFFFFDA
00000000
00000015
00000006
00000015
00000013
00000012
0000000E
00000006
FFFFFFFE
FFFFFFF4
FFFFFFEC
FFFFFFFA
00000002
FFFFFFF1
0000000B
00000011
00000029
0000001D
00000010
0000000E
00000006
00000003
FFFFFFF6
FFFFFFFA
FFFFFFF0
00000004
FFFFFFF0
00000006
FFFFFFFE
FFFFFFD7
FFFFFFBA
FFFFFFB4
FFFFFFAB
FFFFFFCF
FFFFFFD8
FFFFFFDB
FFFFFFC5
FFFFFFE7
FFFFFFD4
FFFFFFF8
FFFFFFF2
FFFFFFF0
FFFFFFE6
FFFFFFD7
FFFFFFDD
FFFFFFC0
FFFFFFF1
0000000B
0000000A
00000028
00000026
00000021
00000004
FFFFFFF2
FFFFFFE1
FFFFFFE4
FFFFFFF3
FFFFFFDA
FFFFFFD9
FFFFFFE9
FFFFFFFB
00000007
00000024
00000027
0000002F
0000000F
FFFFFFF3
FFFFFFFD
FFFFFFE2
FFFFFFEE
FFFFFFDF
FFFFFFCD
FFFFFFCF
FFFFFFEB
00000002
0000001F
00000034
0000001E
0000001B
FFFFFFEF
FFFFFFED
FFFFFFE8
FFFFFFE0
FFFFFFF9
FFFFFFF6
FFFFFFF1
FFFFFFD6
0000000A
00000011
00000012
0000000C
FFFFFFDC
00000008
FFFFFFE1
FFFFFFFA
00000017
0000001F
00000010
FFFFFFDD
FFFFFFD8
00000001
00000009
FFFFFFFF
FFFFFFF8
FFFFFFC1
FFFFFFF5
FFFFFFFD
00000014
00000021
0000001B
00000014
FFFFFFE0
FFFFFFED
00000021
0000002C
0000000F
FFFFFFF9
FFFFFFE7
0000000C
00000022
FFFFFFF7
00000010
00000001
FFFFFFF1
FFFFFFF1
0000000B
00000014
0000001B
00000011
FFFFFFDF
FFFFFFE6
FFFFFFF9
FFFFFFFB
00000010
0000000C
FFFFFFEA
FFFFFFF9
00000005
00000005
00000001
00000002
00000014
FFFFFFF7
FFFFFFF2
00000006
00000002
00000012
00000004
FFFFFFE8
FFFFFFE7
FFFFFFF7
FFFFFFEC
FFFFFFF2
FFFFFFDA
FFFFFFEF
FFFFFFE0
FFFFFFC1
FFFFFFFB
FFFFFFF1
FFFFFFFC
00000008
FFFFFFEF
FFFFFFE8
FFFFFFE2
FFFFFFE1
FFFFFFCC
FFFFFFEA
FFFFFFF6
FFFFFFF9
FFFFFFE4
FFFFFFE3
FFFFFFD7
00000002
FFFFFFEC
FFFFFFF1
FFFFFFFE
FFFFFFEA
FFFFFFF4
FFFFFFEB
00000004
00000006
00000005
FFFFFFF7
FFFFFFF6
00000004
FFFFFFF8
FFFFFFF2
FFFFFFEA
FFFFFFDF
00000001
FFFFFFFA
FFFFFFF7
FFFFFFC8
FFFFFFF9
FFFFFFF1
FFFFFFF2
FFFFFFE9
FFFFFFDE
FFFFFFF6
FFFFFFCE
FFFFFFAB
FFFFFF9E
FFFFFFB7
FFFFFFEB
FFFFFFE4
FFFFFFF3
FFFFFFF0
FFFFFFC5
FFFFFFB7
FFFFFFF2
FFFFFFFF
FFFFFFEE
FFFFFFE8
FFFFFFE8
FFFFFFF3
00000001
0000001C
0000000B
00000019
0000000A
00000016
FFFFFFFD
FFFFFFEC
FFFFFFEE
00000017
0000002E
0000003D
0000003F
0000004D
00000039
0000003F
0000001C
0000001B
00000016
0000001F
FFFFFFE4
FFFFFFE9
00000023
00000031
00000039
00000033
00000034
00000031
00000031
00000032
00000035
00000018
00000016
FFFFFFE6
FFFFFFF9
00000012
00000033
0000003F
0000003A
00000027
00000020
0000002F
00000021
00000010
FFFFFFEE
00000001
FFFFFFFA
FFFFFFE9
00000009
0000002E
00000033
00000046
0000001B
00000006
00000024
FFFFFFFE
00000002
FFFFFFDE
FFFFFFC3
FFFFFFED
FFFFFFDB
FFFFFFFE
00000022
0000001D
00000022
FFFFFFE3
FFFFFFF2
0000001D
00000004
00000005
FFFFFFED
FFFFFFCA
FFFFFFF0
FFFFFFDE
FFFFFFE2
FFFFFFFE
00000003
FFFFFFF0
FFFFFFF0
FFFFFFF5
0000000C
00000007
FFFFFFF5
FFFFFFED
FFFFFFCD
FFFFFFED
FFFFFFCF
FFFFFFD6
FFFFFFF2
FFFFFFE9
FFFFFFF0
FFFFFFFC
0000000B
00000005
FFFFFFFF
00000001
FFFFFFF5
FFFFFFCB
FFFFFFED
FFFFFFEB
FFFFFFE1
FFFFFFE5
FFFFFFEF
0000000E
FFFFFFFE
0000000B
00000008
FFFFFFFC
FFFFFFF8
FFFFFFE2
FFFFFFBF
FFFFFFD5
FFFFFFE2
FFFFFFE9
0000000C
00000007
0000001B
00000018
00000014
00000010
0000000B
00000006
FFFFFFF6
FFFFFFC9
FFFFFFED
FFFFFFDB
FFFFFFDB
00000028
00000025
00000023
00000023
00000028
00000015
0000000A
00000003
FFFFFFFE
FFFFFFD5
FFFFFFF8
FFFFFFF5
00000003
00000004
FFFFFFE7
FFFFFFDA
FFFFFFD3
FFFFFFDA
FFFFFFBF
FFFFFFCD
FFFFFFC2
FFFFFFF2
FFFFFFD4
FFFFFFFD
FFFFFFFB
FFFFFFF3
FFFFFFF9
FFFFFFFB
FFFFFFFF
00000005
00000005
00000001
00000006
FFFFFFFA
FFFFFFF8
FFFFFFFE
FFFFFFF2
FFFFFFF6
FFFFFFFC
FFFFFFFA
00000000
00000006
0000000A
0000000C
0000000C
00000001
00000000
FFFFFFF8
FFFFFFFE
00000003
FFFFFFF3
00000002
0000000A
00000005
0000001A
00000027
00000020
00000004
FFFFFFF4
FFFFFFEB
FFFFFFEA
FFFFFFF4
00000001
FFFFFFFC
00000003
FFFFFFFB
00000000
00000009
00000041
0000002E
00000007
FFFFFFF7
FFFFFFFE
FFFFFFFE
FFFFFFEF
00000003
FFFFFFFC
00000000
FFFFFFFF
00000001
00000021
00000025
0000001C
00000012
0000000A
FFFFFFFA
00000005
FFFFFFFA
00000004
FFFFFFF7
00000000
FFFFFFE4
FFFFFFE2
FFFFFFF9
00000028
00000019
FFFFFFFB
FFFFFFF8
00000009
0000000D
FFFFFFF9
FFFFFFFB
00000001
FFFFFFED
FFFFFFDC
FFFFFFD5
FFFFFFDD
FFFFFFF7
00000012
FFFFFFD6
FFFFFFCE
00000003
FFFFFFF9
00000008
FFFFFFFD
FFFFFFFA
FFFFFFF0
FFFFFFDA
FFFFFFDF
FFFFFFDF
FFFFFFDC
FFFFFFE2
FFFFFFEB
FFFFFFF0
00000005
FFFFFFFB
FFFFFFFB
FFFFFFFF
FFFFFFFA
00000004
FFFFFFF8
0000000F
00000000
FFFFFFF1
FFFFFFDC
FFFFFFFC
FFFFFFF2
FFFFFFF2
00000003
FFFFFFFE
FFFFFFFE
00000003
00000005
FFFFFFFF
00000016
0000000D
00000008
FFFFFFF0
00000000
00000008
00000003
FFFFFFFE
FFFFFFFD
00000003
FFFFFFFA
00000008
00000010
00000013
00000018
0000001E
FFFFFFFB
00000001
FFFFFFF8
00000004
00000005
00000002
FFFFFFFB
00000004
FFFFFFFE
00000005
00000001
0000000A
00000008
FFFFFFFC
00000003
FFFFFFF8
FFFFFFF6
FFFFFFF3
FFFFFFFF
FFFFFFF8
00000003
00000001
00000008
00000008
0000000B
0000000C
00000005
FFFFFFFD
00000002
00000008
FFFFFFFD
00000005
FFFFFFF8
00000002
FFFFFFEC
FFFFFFE5
FFFFFFE3
FFFFFFEA
FFFFFFE3
FFFFFFD2
FFFFFFDC
FFFFFFE3
FFFFFFF1
FFFFFFED
00000001
FFFFFFFA
FFFFFFF5
FFFFFFCE
FFFFFFB3
FFFFFFD2
FFFFFFCC
FFFFFFC1
FFFFFFC3
FFFFFFED
FFFFFFEC
FFFFFFDA
FFFFFFE6
FFFFFFF2
FFFFFFF3
FFFFFFFA
FFFFFFDA
FFFFFFEF
FFFFFFED
FFFFFFDE
FFFFFFC6
FFFFFFBA
FFFFFFCA
FFFFFFD9
00000006
00000019
00000012
FFFFFFF5
0000001B
FFFFFFFE
FFFFFFE8
FFFFFFF3
FFFFFFAC
FFFFFFA7
FFFFFFB2
FFFFFF9C
FFFFFFCA
FFFFFFE4
0000000E
00000011
FFFFFFE6
FFFFFFFF
FFFFFFF5
FFFFFFD8
FFFFFFD2
FFFFFFCF
FFFFFFCB
FFFFFFDA
FFFFFFB9
FFFFFFCA
FFFFFFF5
0000000F
0000000B
00000003
00000001
FFFFFFDD
FFFFFFF3
FFFFFFEF
FFFFFFE3
FFFFFFC7
FFFFFFD0
FFFFFFCC
FFFFFFD1
FFFFFFED
FFFFFFF1
FFFFFFD7
FFFFFFEA
FFFFFFF3
00000008
FFFFFFF8
FFFFFFF8
00000015
00000008
FFFFFFE9
FFFFFFEB
00000012
0000002F
00000014
FFFFFFDF
0000000E
0000001E
0000001C
0000000D
00000000
00000022
00000017
00000009
00000019
0000000A
00000019
FFFFFFF1
FFFFFFD9
FFFFFFF6
00000003
00000010
0000000F
FFFFFFF9
00000001
0000000E
00000017
0000000F
00000011
0000001A
00000015
FFFFFFEF
0000000D
FFFFFFF7
00000003
FFFFFFFA
FFFFFFFA
FFFFFFE9
00000007
00000002
00000004
00000018
00000000
FFFFFFF8
FFFFFFF8
FFFFFFFD
FFFFFFF4
FFFFFFFC
FFFFFFED
FFFFFFE1
FFFFFFD7
FFFFFFE0
00000000
00000005
0000000B
0000000B
FFFFFFE1
FFFFFFD8
FFFFFFEA
FFFFFFE0
FFFFFFD9
FFFFFFEF
FFFFFFD6
FFFFFFCC
FFFFFFDC
FFFFFFF3
FFFFFFF8
FFFFFFFE
00000012
FFFFFFFB
FFFFFFEB
00000002
0000000B
FFFFFFF3
FFFFFFF1
FFFFFFFA
FFFFFFE4
FFFFFFF1
FFFFFFF9
FFFFFFF7
FFFFFFF6
00000003
FFFFFFFF
FFFFFFED
FFFFFFF3
FFFFFFFB
0000000A
FFFFFFF3
FFFFFFF1
FFFFFFDF
FFFFFFD3
00000007
00000008
0000000B
FFFFFFE3
FFFFFFF6
FFFFFFF3
FFFFFFEE
FFFFFFFF
FFFFFFC3
FFFFFFD8
FFFFFFED
FFFFFFFF
00000002
00000014
00000026
00000023
00000016
00000018
00000007
00000012
FFFFFFCF
FFFFFFDE
FFFFFFF1
FFFFFFEE
FFFFFFE9
00000000
00000005
0000001F
00000018
0000002C
00000014
0000000A
FFFFFFE7
FFFFFFC8
FFFFFFE2
FFFFFFE1
FFFFFFE0
FFFFFFDE
FFFFFFEE
FFFFFFF1
FFFFFFFE
0000001F
00000018
00000013
00000009
FFFFFFC7
FFFFFFDD
FFFFFFE6
FFFFFFE6
FFFFFFE3
FFFFFFE6
FFFFFFE5
FFFFFFD6
FFFFFFCC
FFFFFFE1
FFFFFFF8
00000019
0000002C
FFFFFFC6
FFFFFFE3
FFFFFFE9
FFFFFFE3
FFFFFFE7
FFFFFFFA
FFFFFFF2
FFFFFFD1
FFFFFFB2
FFFFFFC5
FFFFFFCA
00000008
00000030
FFFFFFFF
00000009
FFFFFFE4
FFFFFFD4
FFFFFFEE
FFFFFFFD
FFFFFFF5
FFFFFFE0
FFFFFFCF
FFFFFFC3
FFFFFFD8
FFFFFFF1
00000020
FFFFFFF9
FFFFFFFC
FFFFFFEB
FFFFFFD0
FFFFFFE9
FFFFFFF3
FFFFFFDD
FFFFFFD6
FFFFFFDD
FFFFFFD5
FFFFFFEC
FFFFFFF8
00000000
0000000F
00000023
00000007
FFFFFFE9
FFFFFFF4
FFFFFFFE
FFFFFFFC
FFFFFFF6
FFFFFFF2
FFFFFFE6
FFFFFFF6
00000001
FFFFFFF6
0000000D
00000027
00000004
FFFFFFFE
FFFFFFFF
00000005
00000000
0000000B
00000005
FFFFFFFA
FFFFFFF7
00000014
FFFFFFF8
FFFFFFEC
00000014
0000000E
00000017
0000000E
0000000A
00000006
0000000D
00000010
00000000
00000014
00000018
00000005
00000006
00000005
00000004
00000014
00000015
0000000A
00000001
0000000F
FFFFFFFE
00000005
FFFFFFFE
0000001A
0000000F
00000010
FFFFFFF6
FFFFFFF0
0000000B
00000005
00000010
0000001B
00000025
00000018
0000002A
00000021
00000022
FFFFFFF5
FFFFFFE2
FFFFFFDC
FFFFFFEF
FFFFFFD4
00000001
FFFFFFF0
FFFFFFE8
FFFFFFEA
00000001
0000000C
00000012
FFFFFFC3
FFFFFFD9
FFFFFFE4
FFFFFFF7
FFFFFFC3
FFFFFFCC
FFFFFFD8
FFFFFFD3
FFFFFFCD
FFFFFFF2
00000014
0000000A
FFFFFFF8
FFFFFFEB
00000000
0000000D
FFFFFFE8
FFFFFFF4
FFFFFFFC
0000001E
00000015
FFFFFFFF
FFFFFFF6
FFFFFFF2
FFFFFFFD
FFFFFFD4
FFFFFFC8
FFFFFFF5
00000000
FFFFFFD2
FFFFFFF4
0000001D
0000002A
0000001E
FFFFFFF8
FFFFFFCF
FFFFFFBF
FFFFFFBC
FFFFFFAC
FFFFFFC0
00000006
FFFFFFED
FFFFFFEA
00000000
0000000E
0000001B
00000014
00000002
FFFFFFBD
FFFFFFA8
FFFFFFA2
FFFFFF91
FFFFFFC6
00000018
FFFFFFDD
FFFFFFD3
FFFFFFFA
FFFFFFF9
00000001
00000005
00000001
FFFFFFCF
FFFFFFC9
FFFFFFBF
FFFFFFB3
FFFFFF97
FFFFFFF7
FFFFFFEB
FFFFFFF3
FFFFFFE4
FFFFFFE0
FFFFFFED
FFFFFFFB
FFFFFFFC
FFFFFFEF
FFFFFFFA
FFFFFFF5
FFFFFFFC
FFFFFFE3
FFFFFFEE
FFFFFFEB
FFFFFFD1
FFFFFFD6
FFFFFFBB
FFFFFFC5
FFFFFFDF
FFFFFFE5
FFFFFFE5
FFFFFFFC
00000013
00000010
00000021
00000003
FFFFFFEC
FFFFFFE5
FFFFFFDB
FFFFFFD3
FFFFFFB9
FFFFFFC7
FFFFFFD7
FFFFFFEF
00000002
0000000B
00000012
0000001A
0000001A
00000005
FFFFFFF0
FFFFFFE7
FFFFFFDF
FFFFFFD6
FFFFFFDE
FFFFFFE5
FFFFFFF5
00000004
0000000F
00000011
0000000C
0000001D
FFFFFFF6
FFFFFFEF
FFFFFFF1
FFFFFFDC
FFFFFFE5
FFFFFFDD
FFFFFFFE
00000003
0000000A
0000000B
0000000D
00000018
00000016
FFFFFFEB
00000014
FFFFFFFD
FFFFFFDC
FFFFFFEC
FFFFFFF2
00000012
00000006
FFFFFFFE
00000007
00000001
0000000D
00000014
00000006
00000017
FFFFFFDC
FFFFFFBD
FFFFFFEB
FFFFFFE8
0000000C
FFFFFFEA
FFFFFFFB
FFFFFFEF
FFFFFFF7
00000016
0000001A
00000006
00000000
0000000D
00000001
0000000F
00000010
00000000
FFFFFFFE
0000000A
00000004
00000011
00000008
0000000E
0000000B
0000000D
00000007
00000009
00000001
FFFFFFFC
FFFFFFFC
FFFFFFFA
00000005
0000000A
00000002
0000000A
FFFFFFFF
00000006
00000004
00000004
00000006
FFFFFFFC
00000003
FFFFFFF3
00000002
00000002
0000000C
0000000F
FFFFFFFE
FFFFFFFB
00000004
00000007
00000009
FFFFFFF6
FFFFFFF7
FFFFFFFB
00000014
00000020
00000023
0000001D
00000013
00000006
FFFFFFFF
00000002
00000004
00000007
FFFFFFF8
FFFFFFEC
FFFFFFDC
FFFFFFEA
FFFFFFF3
FFFFFFFA
0000000E
0000001C
00000000
FFFFFFFD
00000008
00000001
00000009
FFFFFFFD
FFFFFFF3
FFFFFFCE
FFFFFFCD
FFFFFFD1
FFFFFFFD
00000003
00000010
FFFFFFFF
00000004
0000000B
FFFFFFFF
0000000B
00000016
0000000A
0000000B
FFFFFFEE
FFFFFFFE
0000000D
00000005
00000000
0000000A
00000008
00000007
00000013
00000007
00000020
0000000B
00000013
0000001F
00000021
00000005
00000008
FFFFFFFA
00000001
0000000F
0000000F
00000009
00000007
0000001D
00000004
0000000B
0000001D
0000001E
00000013
00000013
0000000A
0000000B
0000000C
00000003
00000002
FFFFFFFA
FFFFFFF9
00000009
00000007
00000011
00000013
00000010
00000004
00000008
00000001
0000000B
00000001
00000009
FFFFFFFE
00000001
FFFFFFF8
FFFFFFF7
00000018
00000019
0000000F
0000000B
00000006
FFFFFFFB
FFFFFFFE
00000000
0000000B
00000011
FFFFFFF9
FFFFFFEB
00000008
00000015
00000009
00000011
0000000B
0000000E
00000005
0000000E
FFFFFFFF
00000001
FFFFFFFE
00000005
FFFFFFFE
FFFFFFFC
FFFFFFFF
00000009
00000005
00000007
FFFFFFFC
FFFFFFFF
00000001
FFFFFFFF
00000000
FFFFFFF7
00000003
FFFFFFFF
FFFFFFFC
00000003
FFFFFFED
FFFFFFF2
00000005
FFFFFFFB
FFFFFFFB
00000002
FFFFFFFE
00000006
FFFFFFFF
FFFFFFFA
FFFFFFF7
FFFFFFDD
FFFFFFDF
00000006
0000000E
0000002A
00000011
0000000B
FFFFFFFF
FFFFFFFB
FFFFFFF6
FFFFFFDD
FFFFFFE1
FFFFFFF7
FFFFFFED
FFFFFFE9
FFFFFFF6
0000000F
00000014
00000026
0000003F
0000001A
FFFFFFE0
FFFFFFF0
FFFFFFE6
FFFFFFF2
FFFFFFFC
FFFFFFF2
00000009
00000023
0000002E
00000038
00000025
00000018
00000025
FFFFFFBB
FFFFFFED
FFFFFFED
FFFFFFFA
00000007
0000000F
00000011
00000033
00000047
0000003D
00000035
00000033
00000019
FFFFFFCB
FFFFFFEA
0000000E
00000009
0000000A
0000000F
0000002C
0000003A
00000049
0000002C
00000013
0000002C
00000040
FFFFFFFE
FFFFFFF0
00000019
0000001C
00000012
0000001D
00000026
0000002B
00000019
FFFFFFFB
0000000C
FFFFFFD7
FFFFFFFF
FFFFFFF7
00000003
0000000D
0000002D
00000021
0000001E
0000001B
FFFFFFFB
FFFFFFF7
FFFFFFED
FFFFFFFE
FFFFFFED
FFFFFFF1
00000001
00000017
0000001E
00000024
00000029
00000018
FFFFFFFF
FFFFFFFE
FFFFFFF2
FFFFFFF3
FFFFFFF3
FFFFFFDC
00000008
FFFFFFFF
00000027
00000032
00000030
00000020
00000002
FFFFFFF5
FFFFFFE6
FFFFFFF2
FFFFFFF8
FFFFFFF8
FFFFFFF7
00000003
00000004
0000000A
00000015
0000002D
00000016
00000016
0000000F
FFFFFFEE
FFFFFFF8
FFFFFFF9
00000007
00000011
FFFFFFFD
00000019
00000008
0000000C
00000019
0000001D
0000001A
00000007
00000007
FFFFFFF8
00000004
00000001
0000000B
00000017
00000022
00000000
00000007
00000029
0000001F
0000001B
00000022
00000014
00000005
00000011
0000001B
0000001A
0000000E
00000008
00000003
00000024
00000036
0000001F
00000027
00000036
00000029
00000022
00000027
0000002C
0000001F
FFFFFFFB
FFFFFFF1
00000005
00000015
00000004
0000000C
00000014
0000000E
00000009
00000016
0000001E
0000002D
0000001A
00000017
FFFFFFFB
FFFFFFF3
FFFFFFEA
FFFFFFFB
FFFFFFEB
FFFFFFF6
0000000B
00000014
0000000B
00000009
00000001
00000006
00000019
FFFFFFF6
FFFFFFE2
FFFFFFE5
FFFFFFE8
FFFFFFFF
00000000
FFFFFFFE
00000005
FFFFFFF3
FFFFFFF4
FFFFFFE7
FFFFFFCA
FFFFFFC1
FFFFFFE9
FFFFFFD5
FFFFFFDE
FFFFFFFB
00000001
FFFFFFFD
0000000D
00000003
FFFFFFEB
FFFFFFEB
FFFFFFCE
FFFFFFC0
FFFFFFF4
FFFFFFE3
FFFFFFC1
FFFFFFFC
00000004
0000000D
00000007
00000016
0000000B
00000005
FFFFFFE5
FFFFFFEA
00000004
00000004
FFFFFFE1
FFFFFFD1
FFFFFFFE
00000002
FFFFFFFC
00000012
00000010
00000021
00000009
00000001
00000002
00000017
FFFFFFE2
FFFFFFCF
FFFFFFD0
FFFFFFF4
FFFFFFFA
FFFFFFFF
00000000
00000027
00000028
00000017
0000000D
00000010
0000000B
FFFFFFFC
FFFFFFDD
FFFFFFE3
FFFFFFF1
00000004
FFFFFFF8
FFFFFFF4
0000000C
00000005
0000001E
0000000C
00000017
00000002
FFFFFFF3
FFFFFFED
FFFFFFE7
FFFFFFF4
FFFFFFE5
00000004
00000004
FFFFFFFF
00000019
0000000A
0000000C
00000008
00000014
FFFFFFF7
FFFFFFF1
FFFFFFD7
FFFFFFEB
FFFFFFF5
00000008
00000009
00000010
0000001B
00000021
0000001D
0000000A
FFFFFFE9
FFFFFFF3
00000004
FFFFFFCE
FFFFFFD0
FFFFFFF8
FFFFFFF1
FFFFFFFA
00000001
FFFFFFF8
0000000E
0000000A
FFFFFFED
FFFFFFE8
00000001
FFFFFFFF
FFFFFFFF
FFFFFFF4
FFFFFFD8
FFFFFFE3
FFFFFFEF
FFFFFFE4
FFFFFFDC
FFFFFFD2
FFFFFFEA
FFFFFFFD
00000001
FFFFFFF8
0000001E
0000001D
00000000
00000031
00000038
00000032
00000032
00000029
00000000
0000001F
0000001C
00000044
00000001
FFFFFFFD
FFFFFFF7
00000015
0000001B
00000040
0000001A
0000001F
0000001C
00000014
00000017
00000019
00000024
0000000A
FFFFFFF9
FFFFFFF8
0000001A
00000019
00000026
0000000D
FFFFFFFF
00000006
FFFFFFFC
FFFFFFFE
FFFFFFF7
00000004
00000014
FFFFFFEB
00000000
0000001E
00000013
0000000A
0000001C
00000008
FFFFFFF0
FFFFFFC2
FFFFFFC5
FFFFFFD8
FFFFFFD0
FFFFFFDE
FFFFFFF0
FFFFFFE3
0000000C
00000010
0000001A
00000003
00000017
FFFFFFE0
FFFFFFAA
FFFFFF9C
FFFFFFBB
FFFFFFC4
FFFFFFC9
FFFFFFED
FFFFFFDD
0000001C
0000001C
00000018
00000016
00000018
FFFFFFD1
FFFFFFB7
FFFFFFB8
FFFFFFD4
0000000A
00000000
FFFFFFED
FFFFFFC9
0000002B
00000023
00000013
0000002B
00000014
FFFFFFF0
FFFFFFDF
FFFFFFF2
FFFFFFF8
00000024
0000002C
FFFFFFF5
FFFFFFC3
00000027
00000029
00000028
00000044
0000002F
0000000F
00000006
00000019
FFFFFFFD
00000012
0000001D
FFFFFFF9
FFFFFFDC
00000002
0000001C
00000027
0000002A
00000011
0000000E
00000012
00000011
FFFFFFFC
00000008
00000016
FFFFFFDF
FFFFFFCD
FFFFFFE7
00000003
00000010
00000020
0000000F
00000008
00000000
FFFFFFFE
FFFFFFFC
FFFFFFF8
FFFFFFFB
FFFFFFDD
FFFFFFE1
FFFFFFBA
FFFFFFDC
00000004
00000004
FFFFFFFF
FFFFFFFC
FFFFFFF8
00000000
0000000A
FFFFFFF0
FFFFFFDF
FFFFFFF5
FFFFFFDA
FFFFFFC1
FFFFFFA9
FFFFFFE7
FFFFFFD9
FFFFFFD9
FFFFFFF5
FFFFFFF2
00000004
00000009
FFFFFFD3
FFFFFFCA
FFFFFFF4
FFFFFFE2
FFFFFFDC
FFFFFFB8
FFFFFFA7
FFFFFFA0
FFFFFFC9
FFFFFFD8
FFFFFFFB
FFFFFFDC
FFFFFFAB
FFFFFFBF
FFFFFFFC
FFFFFFFE
00000001
00000007
FFFFFFFB
FFFFFFF2
FFFFFFF3
FFFFFFFA
00000001
FFFFFFF9
FFFFFFF4
00000001
00000004
FFFFFFF7
FFFFFFFA
FFFFFFF8
FFFFFFF7
FFFFFFF3
FFFFFFF1
00000003
FFFFFFF8
FFFFFFF3
FFFFFFF1
FFFFFFF5
FFFFFFF5
FFFFFFFB
FFFFFFF5
00000000
FFFFFFF9
00000008
FFFFFFFC
00000003
0000000F
0000000F
00000017
00000019
0000000C
00000005
00000000
FFFFFFFE
00000001
FFFFFFF7
FFFFFFFF
00000009
00000010
0000000F
00000025
00000030
0000002F
00000020
00000009
00000004
FFFFFFF5
FFFFFFFA
00000003
00000007
00000007
0000000E
00000012
00000023
00000031
00000043
00000032
0000001B
00000010
00000000
FFFFFFFF
FFFFFFFE
00000003
FFFFFFF3
FFFFFFF2
00000002
00000011
0000001B
00000017
0000000D
00000002
00000001
0000000A
FFFFFFFC
00000002
FFFFFFF0
FFFFFFF2
FFFFFFE9
FFFFFFE3
FFFFFFFC
FFFFFFE6
FFFFFFF6
FFFFFFF9
FFFFFFF2
FFFFFFED
FFFFFFF7
FFFFFFF4
00000002
FFFFFFF3
FFFFFFEB
FFFFFFD8
FFFFFFCE
FFFFFFD2
FFFFFFB3
FFFFFFC5
FFFFFFE7
FFFFFFFD
00000002
00000004
FFFFFFFD
00000003
FFFFFFFA
FFFFFFDD
FFFFFFDD
FFFFFFE8
FFFFFFE7
FFFFFFC4
FFFFFFC5
FFFFFFEF
FFFFFFFB
FFFFFFFE
FFFFFFF8
FFFFFFFF
00000004
00000004
FFFFFFFB
FFFFFFCD
FFFFFFA8
FFFFFFDC
FFFFFFC7
FFFFFFDA
FFFFFFEF
FFFFFFFF
00000007
FFFFFFFA
00000000
00000005
0000000F
FFFFFFF8
FFFFFFF8
FFFFFFC2
FFFFFFA5
FFFFFFD9
FFFFFFE8
FFFFFFFF
FFFFFFFB
FFFFFFFB
FFFFFFFD
FFFFFFFE
FFFFFFFD
FFFFFFFF
00000002
0000000D
00000006
FFFFFFFB
FFFFFFF6
00000009
FFFFFFFC
00000005
FFFFFFFD
00000008
FFFFFFF8
FFFFFFF8
FFFFFFFA
00000002
00000001
00000003
00000006
00000004
00000000
FFFFFFF5
FFFFFFF8
00000005
00000008
00000006
FFFFFFFE
00000025
0000001D
0000000F
00000000
FFFFFFEF
FFFFFFFD
0000000E
0000001E
00000014
00000009
00000005
FFFFFFFE
00000004
00000027
FFFFFFFF
FFFFFFE6
FFFFFFD6
FFFFFFD0
FFFFFFDA
FFFFFFE9
FFFFFFF2
00000001
0000000A
00000001
FFFFFFEB
FFFFFFF7
FFFFFFFE
FFFFFFE3
FFFFFFB5
FFFFFFB4
FFFFFFCB
FFFFFFDA
FFFFFFF9
0000000A
0000000D
FFFFFFFF
00000013
FFFFFFEE
FFFFFFE7
FFFFFFEB
FFFFFFE1
FFFFFFB9
FFFFFFB6
FFFFFFD7
FFFFFFF4
0000000E
0000001E
0000002A
0000002C
00000017
FFFFFFF0
FFFFFFE1
FFFFFFEE
FFFFFFE2
FFFFFFC7
FFFFFFAD
FFFFFFC7
FFFFFFF5
00000019
00000021
00000023
FFFFFFF4
FFFFFFDF
FFFFFFDA
FFFFFFD8
FFFFFFD9
FFFFFFEC
FFFFFFBD
FFFFFFBB
FFFFFFCE
FFFFFFFD
0000001D
0000001B
00000015
FFFFFFE3
FFFFFFD9
FFFFFFDA
FFFFFFF4
FFFFFFE6
FFFFFFE9
FFFFFFD9
FFFFFFC8
FFFFFFE9
00000021
0000000E
00000004
FFFFFFF7
00000003
FFFFFFFC
FFFFFFD1
FFFFFFF2
FFFFFFFA
FFFFFFEE
FFFFFFE1
FFFFFFE0
FFFFFFF3
00000004
00000007
00000011
00000002
FFFFFFFD
FFFFFFEB
FFFFFFD8
FFFFFFF2
00000002
FFFFFFF7
00000000
FFFFFFE1
FFFFFFDF
FFFFFFFD
00000018
00000010
00000001
00000006
FFFFFFFD
FFFFFFE3
FFFFFFE4
FFFFFFF2
FFFFFFFC
FFFFFFFE
0000000E
00000011
00000013
00000018
0000000A
FFFFFFFD
00000001
00000001
FFFFFFED
FFFFFFDC
FFFFFFF2
FFFFFFF9
0000000E
00000020
00000023
0000001C
0000000C
FFFFFFFF
FFFFFFF5
FFFFFFFB
FFFFFFF7
FFFFFFFE
FFFFFFCA
FFFFFFD1
FFFFFFF9
00000001
0000000D
00000012
0000000C
0000000A
00000008
FFFFFFF5
FFFFFFCF
FFFFFFE8
00000002
FFFFFFEF
FFFFFFE8
FFFFFFC4
FFFFFFC0
FFFFFFD0
FFFFFFF6
FFFFFFF9
FFFFFFFC
FFFFFFF8
FFFFFFF0
FFFFFFF6
00000008
00000005
FFFFFFFF
00000002
FFFFFFFC
FFFFFFF4
FFFFFFEB
FFFFFFEA
FFFFFFEF
FFFFFFF5
FFFFFFF2
FFFFFFFE
FFFFFFFE
FFFFFFFD
FFFFFFFE
FFFFFFFD
FFFFFFD2
FFFFFFB1
FFFFFF94
FFFFFFC8
FFFFFFD5
FFFFFFD0
FFFFFFBA
FFFFFFD7
FFFFFFDB
FFFFFFDB
FFFFFFF8
FFFFFFF1
0000000F
FFFFFFFF
FFFFFFF4
FFFFFFEE
FFFFFFF1
FFFFFFEB
FFFFFFE9
FFFFFFE8
FFFFFFED
FFFFFFF1
FFFFFFE5
FFFFFFC9
00000008
FFFFFFF7
FFFFFFF8
FFFFFFFD
FFFFFFFE
FFFFFFFB
FFFFFFF4
00000006
00000014
0000000D
00000014
00000007
FFFFFFFB
00000019
0000000F
00000009
FFFFFFF5
FFFFFFEE
FFFFFFE9
FFFFFFE7
00000000
00000017
0000000F
00000012
0000000F
FFFFFFE2
00000025
0000001F
00000002
0000000C
FFFFFFEF
FFFFFFDC
FFFFFFD4
00000014
00000022
FFFFFFFD
FFFFFFFF
FFFFFFD2
FFFFFFE9
00000028
00000016
0000001D
00000021
00000018
FFFFFFD5
FFFFFFCE
FFFFFFFE
00000013
00000015
00000007
00000004
00000011
0000002A
00000007
00000015
00000027
00000032
FFFFFFE4
FFFFFFDB
FFFFFFFA
0000001B
00000011
0000000D
FFFFFFE7
FFFFFFE2
FFFFFFF1
00000007
00000007
00000024
00000012
FFFFFFE3
FFFFFFE7
FFFFFFFF
0000000B
00000024
0000000E
FFFFFFF6
FFFFFFFC
0000000B
00000004
00000000
0000000E
FFFFFFEE
FFFFFFF6
FFFFFFFA
FFFFFFE2
FFFFFFE1
FFFFFFFE
FFFFFFE7
FFFFFFE4
FFFFFFFD
FFFFFFD2
FFFFFFF8
FFFFFFFF
00000009
00000003
FFFFFFFF
FFFFFFEF
FFFFFFE2
FFFFFFD8
FFFFFFDA
FFFFFFDF
FFFFFFBD
00000006
FFFFFFDD
00000014
0000001A
00000002
FFFFFFDC
FFFFFFF2
FFFFFFE1
FFFFFFE9
FFFFFFBE
FFFFFFC4
FFFFFFC4
FFFFFFCA
FFFFFFEF
00000015
00000019
00000007
00000001
00000009
00000007
00000004
FFFFFFF9
00000000
FFFFFFF3
00000006
0000000B
00000008
FFFFFFFE
FFFFFFE5
FFFFFFF2
FFFFFFD8
FFFFFFBF
FFFFFFA1
FFFFFFB0
FFFFFFBA
FFFFFFBF
FFFFFFDB
FFFFFFE2
FFFFFFF7
FFFFFFF3
00000001
00000000
FFFFFFE1
FFFFFFE1
FFFFFFE1
FFFFFFAC
FFFFFFC6
FFFFFFD3
FFFFFFD0
FFFFFFB5
FFFFFFAF
FFFFFF79
FFFFFFB4
FFFFFFFB
00000026
FFFFFFF2
00000020
00000012
FFFFFFE1
FFFFFFE4
FFFFFFDF
FFFFFFEB
FFFFFFE6
FFFFFFEF
FFFFFFF2
FFFFFFBC
00000010
0000002D
FFFFFFDA
00000005
FFFFFFF9
FFFFFFFA
FFFFFFE5
FFFFFFF4
00000015
00000019
00000007
00000013
FFFFFFD6
00000019
FFFFFFF4
FFFFFFD0
FFFFFFCF
FFFFFFCA
FFFFFFE5
FFFFFFEC
00000012
0000001A
00000018
0000001C
00000009
FFFFFFC2
00000013
FFFFFFE2
FFFFFFCD
FFFFFFC0
FFFFFFE6
0000000F
FFFFFFFB
00000032
00000028
00000006
0000000D
FFFFFFF9
FFFFFFBB
00000018
FFFFFFF3
FFFFFFE1
FFFFFFEB
FFFFFFFE
FFFFFFFA
FFFFFFCE
00000004
00000017
00000014
FFFFFFFD
FFFFFFF8
FFFFFFD0
00000005
FFFFFFE5
FFFFFFE9
00000016
00000005
FFFFFFDA
FFFFFFE3
00000004
00000012
00000026
00000010
0000000A
FFFFFFD2
00000009
00000008
0000001B
0000001B
00000011
FFFFFFFD
00000003
FFFFFFFD
0000000E
00000006
00000008
FFFFFFF3
FFFFFFE1
FFFFFFDB
FFFFFFE2
FFFFFFEE
FFFFFFD5
00000008
00000002
00000019
00000001
FFFFFFF5
FFFFFFFD
FFFFFFFB
FFFFFFBF
FFFFFFDD
FFFFFFE6
FFFFFFD6
FFFFFFE3
00000004
0000000B
0000001E
0000000C
00000012
00000007
FFFFFFFD
FFFFFFE7
FFFFFFB4
FFFFFFCE
FFFFFFFB
FFFFFFF9
00000031
00000040
00000020
0000001A
00000023
00000026
0000001B
00000002
FFFFFFFB
FFFFFFD0
FFFFFFE8
FFFFFFFE
00000029
0000001F
00000023
00000021
00000016
00000014
00000025
00000017
00000018
00000006
0000000C
FFFFFFEC
00000003
00000009
00000002
0000000D
00000006
00000006
FFFFFFFD
FFFFFFFF
FFFFFFFD
0000000E
0000000C
0000000B
FFFFFFFB
00000005
00000002
0000000A
00000006
00000003
00000003
00000003
00000002
0000000A
00000000
0000000D
0000000C
00000003
0000000D
00000001
00000000
00000010
00000010
FFFFFFF3
FFFFFFFB
00000004
FFFFFFFE
0000000C
0000000C
0000000F
00000003
FFFFFFFA
00000006
FFFFFFF9
FFFFFFE9
FFFFFFD6
FFFFFFAC
FFFFFFE1
FFFFFFF5
FFFFFFF2
00000006
00000001
00000004
FFFFFFFE
00000001
00000004
FFFFFFF6
FFFFFFE1
FFFFFFD9
FFFFFFD4
FFFFFFF3
FFFFFFED
FFFFFFE8
00000006
00000007
00000001
0000000B
FFFFFFFB
FFFFFFFD
FFFFFFF9
FFFFFFFA
00000004
0000001F
00000032
FFFFFFDA
FFFFFFF2
00000002
0000000F
00000009
FFFFFFFD
00000005
FFFFFFF8
FFFFFFFD
00000009
00000026
00000035
00000030
FFFFFFE4
FFFFFFD9
FFFFFFF5
FFFFFFF5
00000004
00000005
00000004
FFFFFFFF
0000000F
00000028
00000049
00000048
00000050
00000012
FFFFFFC0
FFFFFFF0
00000002
0000000A
00000008
00000008
00000004
0000000E
00000025
00000033
0000003B
0000001F
0000002C
FFFFFFFD
FFFFFFF4
0000000F
0000000F
FFFFFFFF
00000003
00000006
00000014
0000000F
00000019
0000001D
00000009
00000015
0000000D
0000000D
00000015
00000007
FFFFFFFE
0000000A
00000003
00000006
0000000F
00000015
0000001C
FFFFFFF7
00000007
00000004
00000007
0000000E
00000000
0000000E
FFFFFFFF
00000007
FFFFFFFF
00000016
00000021
0000001B
FFFFFFFF
00000001
00000013
00000007
00000005
00000003
00000001
0000000B
FFFFFFF9
00000007
FFFFFFFA
00000002
FFFFFFF5
00000009
00000009
0000000B
00000010
FFFFFFFC
FFFFFFFB
FFFFFFFD
FFFFFFFC
FFFFFFFB
00000008
FFFFFFF8
00000003
FFFFFFF0
FFFFFFF4
FFFFFFF3
FFFFFFF6
00000005
FFFFFFFB
FFFFFFFB
00000005
FFFFFFFC
00000000
FFFFFFF9
FFFFFFE5
FFFFFFD1
FFFFFFD3
FFFFFFD7
FFFFFFE4
FFFFFFEE
FFFFFFF7
FFFFFFEE
00000000
00000008
FFFFFFF6
00000027
00000039
00000038
00000030
0000002E
00000016
00000001
FFFFFFFE
FFFFFFDE
FFFFFFBE
FFFFFFCF
FFFFFFF3
00000007
00000012
0000001C
00000020
00000021
00000010
FFFFFFFE
00000001
FFFFFFF2
FFFFFFE3
FFFFFFDC
FFFFFFE8
FFFFFFD7
00000017
0000002A
00000027
0000002C
0000001B
00000008
0000000D
00000008
FFFFFFFC
FFFFFFE2
FFFFFFEA
FFFFFFF8
FFFFFFF3
00000023
00000022
00000020
00000017
00000015
FFFFFFF9
00000017
FFFFFFFE
FFFFFFFC
0000000A
0000000E
00000008
FFFFFFED
00000027
0000002D
0000000F
00000019
0000001A
FFFFFFDB
FFFFFFBD
FFFFFFEB
00000001
0000000D
00000001
FFFFFFF0
FFFFFFF0
00000029
00000010
FFFFFFF5
FFFFFFFC
00000003
FFFFFFC3
FFFFFFAA
FFFFFFD7
0000000D
0000002F
FFFFFFFF
FFFFFFEF
FFFFFFE6
FFFFFFFC
FFFFFFE8
FFFFFFEB
FFFFFFFD
FFFFFFE5
FFFFFFDC
FFFFFFE9
FFFFFFE7
00000004
00000013
0000000F
00000007
FFFFFFF0
00000005
00000010
FFFFFFED
FFFFFFE4
FFFFFFE2
FFFFFFD2
FFFFFFF6
FFFFFFEA
FFFFFFFF
00000008
00000000
FFFFFFF1
FFFFFFF7
FFFFFFCA
FFFFFFED
FFFFFFCA
FFFFFFCA
FFFFFFC6
FFFFFFCC
FFFFFFE3
FFFFFFEE
FFFFFFDC
FFFFFFE4
FFFFFFF1
FFFFFFDC
FFFFFFF3
FFFFFFD5
00000004
00000005
FFFFFFDE
FFFFFFD3
FFFFFFDB
FFFFFFEF
FFFFFFF6
FFFFFFEA
FFFFFFDA
FFFFFFD6
FFFFFFC2
FFFFFFFB
00000012
00000023
0000000E
0000000E
FFFFFFFE
FFFFFFF8
00000002
0000000D
00000001
FFFFFFFD
FFFFFFEE
FFFFFFE2
FFFFFFED
00000001
00000002
FFFFFFFF
00000006
FFFFFFFF
FFFFFFDF
FFFFFFCE
FFFFFFE9
FFFFFFEE
00000005
FFFFFFEC
0000000F
00000006
00000005
FFFFFFF4
FFFFFFDD
00000020
00000014
00000004
0000000C
00000008
0000000E
FFFFFFF4
FFFFFFFB
FFFFFFE4
00000004
FFFFFFF8
FFFFFFDA
00000006
0000000F
0000000F
00000016
0000000C
00000011
00000012
00000008
FFFFFFF5
00000008
00000005
FFFFFFEA
FFFFFFF8
0000001B
00000007
00000010
00000005
0000000C
00000012
00000016
0000001C
00000005
FFFFFFFF
00000011
FFFFFFFF
FFFFFFF0
FFFFFFF9
FFFFFFFA
FFFFFFF5
FFFFFFF1
FFFFFFEC
00000010
00000026
00000027
00000028
00000014
0000000A
FFFFFFDE
FFFFFFF2
FFFFFFFA
FFFFFFEC
FFFFFFDD
FFFFFFE1
FFFFFFF5
00000019
00000036
00000038
00000032
0000001A
00000003
00000004
FFFFFFF2
FFFFFFFD
FFFFFFE9
FFFFFFEF
00000006
00000009
0000001A
00000020
0000001C
0000000B
FFFFFFF6
FFFFFFD4
00000004
00000001
0000000F
0000001D
00000011
0000001C
00000023
00000009
00000003
FFFFFFE4
FFFFFFE8
FFFFFFF3
0000000F
FFFFFFFB
FFFFFFEC
00000013
0000000C
00000029
00000027
0000000B
FFFFFFE6
FFFFFFE3
FFFFFFF0
FFFFFFEC
00000008
00000008
FFFFFFDF
FFFFFFE6
FFFFFFFA
00000001
00000006
00000003
FFFFFFEB
FFFFFFED
FFFFFFF2
FFFFFFFC
00000003
00000005
FFFFFFC9
FFFFFFE5
FFFFFFE8
FFFFFFF7
FFFFFFF7
FFFFFFFB
0000000E
00000013
0000000A
00000015
00000004
FFFFFFF2
FFFFFFF3
FFFFFFDA
FFFFFFE4
FFFFFFEC
FFFFFFE8
FFFFFFDD
FFFFFFF2
00000016
00000021
0000002E
00000021
00000012
00000000
FFFFFFF7
FFFFFFD6
FFFFFFFE
FFFFFFC6
FFFFFFE2
FFFFFFE8
FFFFFFE8
FFFFFFF7
00000000
0000000C
0000000B
FFFFFFF8
FFFFFFC2
FFFFFFDA
FFFFFFFF
FFFFFFE6
FFFFFFDD
FFFFFFEE
FFFFFFCF
FFFFFF78
FFFFFFD9
FFFFFFEC
FFFFFFDA
FFFFFFE3
FFFFFFE3
FFFFFFF8
00000022
FFFFFFF0
FFFFFFEA
FFFFFFEE
FFFFFFE6
00000013
FFFFFFF0
00000011
0000000E
FFFFFFEF
00000003
FFFFFFF0
FFFFFFFF
FFFFFFD9
00000016
FFFFFFDB
FFFFFFF4
FFFFFFDD
00000015
FFFFFFFF
FFFFFFE7
FFFFFFF3
FFFFFFFC
FFFFFFF7
FFFFFFFD
FFFFFFF8
FFFFFFF8
FFFFFFED
FFFFFFD7
FFFFFFF3
0000000C
00000022
00000006
FFFFFFFF
FFFFFFFF
00000001
00000002
0000000B
FFFFFFFB
FFFFFFF6
00000008
FFFFFFD9
FFFFFFF3
00000020
0000001E
0000001D
00000021
00000013
0000000F
FFFFFFF3
0000000A
FFFFFFFB
FFFFFFF8
00000006
FFFFFFEE
FFFFFFFC
00000020
00000011
0000001B
0000000C
00000018
00000010
FFFFFFFE
FFFFFFF1
FFFFFFEC
00000000
00000003
FFFFFFD7
FFFFFFEF
FFFFFFFC
FFFFFFE2
FFFFFFFE
00000014
00000023
0000000D
FFFFFFE8
FFFFFFD9
FFFFFFCF
FFFFFFE3
00000004
FFFFFFF5
FFFFFFEB
FFFFFFD4
FFFFFFF2
00000012
0000002B
00000021
0000000E
FFFFFFEF
FFFFFFE2
FFFFFFD7
FFFFFFDE
FFFFFFEE
FFFFFFE1
FFFFFFC7
0000001C
00000015
0000001C
00000021
00000024
00000007
00000011
00000004
FFFFFFFA
00000004
00000021
FFFFFFEB
FFFFFFB6
00000033
0000003D
00000031
0000001C
00000004
0000000E
00000002
00000008
00000011
0000001B
FFFFFFF5
FFFFFFEC
FFFFFFCD
0000001E
0000002C
00000015
00000018
00000010
00000003
FFFFFFFA
FFFFFFF3
00000001
0000001A
FFFFFFE4
FFFFFFE8
FFFFFFE2
FFFFFFFC
FFFFFFE9
FFFFFFF7
FFFFFFEA
FFFFFFF5
FFFFFFFA
FFFFFFED
00000000
FFFFFFFD
00000004
FFFFFFC5
00000007
FFFFFFE8
FFFFFFAC
FFFFFFCD
FFFFFFD2
FFFFFFE4
FFFFFFDF
FFFFFFFD
FFFFFFE8
0000000C
FFFFFFDB
FFFFFFE3
FFFFFFC7
FFFFFFF5
FFFFFFF5
FFFFFFFA
FFFFFFFD
00000002
FFFFFFF5
FFFFFFF9
00000006
FFFFFFFC
FFFFFFFA
FFFFFFF6
FFFFFFF7
00000002
00000003
FFFFFFF4
FFFFFFF7
FFFFFFF6
FFFFFFFB
00000001
FFFFFFFF
0000000E
00000005
00000002
FFFFFFFF
FFFFFFF4
FFFFFFF1
FFFFFFF3
00000004
00000004
FFFFFFFB
FFFFFFFF
FFFFFFFB
FFFFFFE9
FFFFFFDD
FFFFFFE3
FFFFFFF9
FFFFFFF1
00000003
FFFFFFF3
FFFFFFF3
FFFFFFF4
FFFFFFF9
00000005
FFFFFFFC
FFFFFFEA
FFFFFFE4
FFFFFFC1
FFFFFFBD
FFFFFFD0
FFFFFFF0
FFFFFFEC
00000006
FFFFFFF9
FFFFFFFA
00000002
00000000
FFFFFFE7
FFFFFFC5
FFFFFFCC
FFFFFFC3
FFFFFFD3
FFFFFFCA
FFFFFFEE
FFFFFFF0
FFFFFFFB
FFFFFFFC
FFFFFFFC
FFFFFFF2
FFFFFFE0
FFFFFFD6
FFFFFFA2
FFFFFF99
FFFFFFC7
FFFFFFE6
FFFFFFF8
00000001
00000000
FFFFFFF4
FFFFFFF2
FFFFFFFB
00000005
FFFFFFEF
FFFFFFD8
FFFFFF8C
FFFFFFA9
FFFFFFD1
00000004
0000000D
0000000C
00000004
00000004
FFFFFFFA
FFFFFFF6
FFFFFFF7
FFFFFFEF
FFFFFFFD
FFFFFFA9
FFFFFFC1
FFFFFFBC
FFFFFFD8
FFFFFFFB
00000006
FFFFFFF4
00000000
FFFFFFF2
00000008
00000001
FFFFFFFC
FFFFFFFE
FFFFFFD2
FFFFFFC1
FFFFFFBE
FFFFFFDC
FFFFFFF1
FFFFFFF2
FFFFFFF3
FFFFFFF6
FFFFFFFC
FFFFFFFC
00000006
FFFFFFF9
FFFFFFED
FFFFFFD0
FFFFFFCE
FFFFFFD2
FFFFFFE0
FFFFFFEE
FFFFFFF8
FFFFFFFF
FFFFFFFD
FFFFFFF7
FFFFFFFF
00000001
FFFFFFF3
FFFFFFDE
FFFFFF9C
FFFFFFB8
FFFFFFEA
FFFFFFFE
FFFFFFFB
FFFFFFF8
FFFFFFFC
FFFFFFF2
FFFFFFF8
FFFFFFFE
00000003
FFFFFFEE
FFFFFFFC
FFFFFFD1
FFFFFFE6
FFFFFFF7
00000001
FFFFFFFF
FFFFFFFE
00000001
00000005
FFFFFFFD
00000005
FFFFFFF5
00000006
FFFFFFFC
00000000
FFFFFFF1
FFFFFFF6
00000001
00000004
00000003
FFFFFFFE
FFFFFFF5
FFFFFFFA
FFFFFFFC
FFFFFFFA
FFFFFFFD
00000004
FFFFFFFD
00000002
FFFFFFFE
00000005
FFFFFFF8
00000009
00000001
FFFFFFFB
FFFFFFF8
00000003
FFFFFFF2
FFFFFFD6
FFFFFFFA
00000012
0000001B
0000000D
00000024
0000002D
00000016
0000000D
00000002
00000004
FFFFFFDF
FFFFFFF6
FFFFFFE2
FFFFFFF1
00000017
0000001A
00000014
00000016
0000000D
00000021
00000006
00000013
FFFFFFF1
FFFFFFED
FFFFFFF3
FFFFFFF5
FFFFFFFA
00000007
00000000
00000010
0000000F
00000010
00000014
0000000B
00000002
FFFFFFFA
FFFFFFF9
FFFFFFF3
FFFFFFF5
00000008
00000024
0000000B
00000005
00000002
0000001B
00000013
FFFFFFFD
0000001F
FFFFFFEA
FFFFFFF6
0000000F
0000000F
00000016
0000002B
00000013
FFFFFFED
00000002
00000015
0000001B
FFFFFFF7
FFFFFFFF
FFFFFFF9
00000012
00000006
0000000D
0000001A
00000029
00000004
00000001
0000001C
00000015
0000000E
0000000D
FFFFFFFB
00000000
00000002
FFFFFFEF
FFFFFFF4
FFFFFFFF
00000008
FFFFFFFC
0000000F
0000001C
00000020
00000014
FFFFFFF3
FFFFFFE7
FFFFFFFE
FFFFFFF4
FFFFFFE7
FFFFFFEB
FFFFFFE6
00000002
00000004
00000017
0000001D
00000005
FFFFFFE3
FFFFFFC9
00000005
FFFFFFDD
FFFFFFEB
FFFFFFD5
FFFFFFD4
FFFFFFD4
FFFFFFFE
00000007
00000013
FFFFFFFD
FFFFFFED
FFFFFFF7
FFFFFFEF
00000000
FFFFFFE8
FFFFFFE8
FFFFFFED
FFFFFFEC
FFFFFFE2
0000000C
0000000F
0000000A
FFFFFFFE
FFFFFFEA
FFFFFFE3
FFFFFFE4
FFFFFFF3
FFFFFFE1
FFFFFFE3
FFFFFFF3
FFFFFFF4
FFFFFFFB
FFFFFFFF
00000005
FFFFFFFC
FFFFFFED
FFFFFFF4
FFFFFFEE
FFFFFFFE
FFFFFFE3
FFFFFFF2
FFFFFFDA
FFFFFFE8
FFFFFFF7
FFFFFFFF
00000002
00000005
00000000
00000006
00000006
FFFFFFF9
FFFFFFEA
FFFFFFEE
0000000F
0000000A
00000007
00000001
00000002
FFFFFFE2
FFFFFFD7
FFFFFFCF
FFFFFFD1
FFFFFFE5
FFFFFFF6
00000005
0000000C
0000000F
00000000
00000007
FFFFFFF2
FFFFFFBD
FFFFFFFF
FFFFFFF3
FFFFFFDD
FFFFFFC7
FFFFFFDA
FFFFFFDB
FFFFFFB9
FFFFFFFF
00000004
FFFFFFEA
FFFFFFCD
00000015
00000030
00000025
00000010
0000000E
FFFFFFF9
FFFFFFE7
FFFFFFDE
FFFFFFD3
FFFFFFE2
FFFFFFCA
FFFFFFDF
00000006
0000001E
0000001E
0000002A
0000002C
00000031
00000003
FFFFFFF1
FFFFFFD3
FFFFFFD0
FFFFFFE9
FFFFFFDA
FFFFFFFC
0000000A
00000016
0000000C
00000030
00000041
00000024
0000000D
FFFFFFED
FFFFFFDE
FFFFFFD8
FFFFFFD1
FFFFFFDF
00000006
FFFFFFFB
FFFFFFF3
0000000C
00000025
00000033
00000023
00000007
00000008
00000008
00000009
FFFFFFDF
FFFFFFE2
0000000D
FFFFFFE0
FFFFFFE0
FFFFFFE3
00000002
00000039
00000005
FFFFFFFC
FFFFFFFC
FFFFFFFF
FFFFFFD1
FFFFFFC6
FFFFFFE9
FFFFFFF2
FFFFFFE5
FFFFFFCF
FFFFFFD8
00000013
0000001D
0000000C
FFFFFFF2
FFFFFFF8
FFFFFFEB
FFFFFFD0
FFFFFFB6
FFFFFFE6
FFFFFFDD
FFFFFFD9
FFFFFFE1
FFFFFFEC
00000016
0000001C
00000013
FFFFFFF7
FFFFFFDA
FFFFFFE2
FFFFFFB5
FFFFFFC2
FFFFFFC0
FFFFFFC8
00000008
FFFFFFE8
FFFFFFEC
FFFFFFE9
0000000A
FFFFFFEC
FFFFFFE8
FFFFFFE9
FFFFFFE8
FFFFFFE9
00000021
FFFFFFD0
00000016
00000001
0000000D
00000008
FFFFFFF3
FFFFFFF6
FFFFFFEE
FFFFFFDE
FFFFFFD3
FFFFFFE3
00000005
FFFFFFFE
FFFFFFF7
FFFFFFF4
FFFFFFF0
00000003
FFFFFFFE
FFFFFFE6
FFFFFFD8
FFFFFFD9
FFFFFFDA
FFFFFFEC
00000001
0000001A
FFFFFFFF
FFFFFFEE
0000002A
00000018
0000000F
0000001A
FFFFFFFF
FFFFFFFA
FFFFFFF9
FFFFFFF9
00000018
00000001
FFFFFFF0
00000003
FFFFFFE5
FFFFFFDB
FFFFFFE9
FFFFFFE0
FFFFFFE3
FFFFFFA4
FFFFFFA3
FFFFFF7D
FFFFFFAC
FFFFFFAB
FFFFFFA7
FFFFFFE4
FFFFFFF7
FFFFFFEC
FFFFFFE6
FFFFFFDD
FFFFFF9F
FFFFFFA5
FFFFFFFC
FFFFFFE4
FFFFFFB5
FFFFFFA2
FFFFFFD0
FFFFFFDA
FFFFFF6B
FFFFFFB9
FFFFFFD7
FFFFFFDD
FFFFFF7F
FFFFFF99
FFFFFFC3
FFFFFFF4
FFFFFFF5
FFFFFFDD
FFFFFFDC
FFFFFFE6
FFFFFFF7
FFFFFFE5
FFFFFFDA
FFFFFFDB
FFFFFFBE
FFFFFFB7
FFFFFFFB
FFFFFFFD
00000002
FFFFFFF6
0000000A
FFFFFFFF
FFFFFFEF
FFFFFFFC
FFFFFFE3
FFFFFFF9
FFFFFFDF
FFFFFFF8
00000012
00000029
0000001E
0000000F
FFFFFFF8
FFFFFFFF
FFFFFFFC
00000003
00000001
FFFFFFFE
00000000
FFFFFFE3
0000002C
00000038
00000034
00000029
0000000F
FFFFFFD5
FFFFFFE3
00000012
0000001C
00000030
00000023
FFFFFFFE
FFFFFFDE
00000035
0000003A
0000002C
00000012
FFFFFFF8
FFFFFFC3
FFFFFFF9
00000021
0000002E
0000003A
0000002C
FFFFFFC7
FFFFFFFB
0000001E
0000001C
0000000A
FFFFFFF9
FFFFFFD6
FFFFFFBC
FFFFFFE8
00000013
0000001C
00000024
00000013
FFFFFFA9
FFFFFFE1
FFFFFFD2
0000000E
FFFFFFFE
FFFFFFD4
FFFFFFC5
FFFFFFDD
FFFFFFF6
00000000
00000006
00000002
FFFFFFF7
FFFFFFB0
FFFFFFEC
FFFFFFCA
FFFFFFFC
FFFFFFED
FFFFFFCB
FFFFFFD6
FFFFFFF8
00000001
FFFFFFF7
FFFFFFFF
FFFFFFF7
FFFFFFE4
00000007
FFFFFFEC
FFFFFFE0
FFFFFFDF
FFFFFFC0
FFFFFFF0
FFFFFFFA
00000006
00000001
FFFFFFFE
FFFFFFFC
FFFFFFFC
0000000B
00000025
FFFFFFFA
FFFFFFE8
FFFFFFFC
00000004
00000009
00000017
00000003
0000000C
00000010
FFFFFFFB
00000009
00000010
0000000D
FFFFFFFE
FFFFFFDA
0000002B
00000040
0000002D
0000002C
0000002C
00000025
00000020
00000021
00000027
FFFFFFF4
FFFFFFD3
FFFFFFFE
00000002
00000004
00000002
00000008
00000003
FFFFFFFC
00000009
FFFFFFFD
FFFFFFFC
FFFFFFFC
FFFFFFF5
00000001
FFFFFFFA
FFFFFFF7
00000008
FFFFFFF9
00000000
FFFFFFFA
FFFFFFF7
0000000A
00000007
0000000C
FFFFFFFF
00000005
FFFFFFF7
00000006
00000008
00000009
FFFFFFF6
FFFFFFF9
FFFFFFFD
FFFFFFF9
00000002
FFFFFFFD
0000000A
FFFFFFFF
00000009
FFFFFFFE
FFFFFFFD
FFFFFFFB
00000001
00000000
00000011
00000006
FFFFFF9D
FFFFFF8C
FFFFFFD2
FFFFFFF1
FFFFFFF9
FFFFFFFB
0000000A
00000006
FFFFFFFA
FFFFFFF9
00000004
00000012
FFFFFFF1
FFFFFFBE
FFFFFFCE
FFFFFFD1
FFFFFFEA
FFFFFFFD
FFFFFFFC
FFFFFFF6
00000006
00000004
FFFFFFFD
FFFFFFEE
FFFFFFD9
FFFFFFBC
FFFFFFC3
FFFFFFED
FFFFFFD0
FFFFFFD2
FFFFFFEF
FFFFFFF1
FFFFFFFF
00000005
00000000
FFFFFFF8
FFFFFFE1
FFFFFFC9
FFFFFFCF
FFFFFFD5
FFFFFFDC
FFFFFFE8
FFFFFFF0
FFFFFFED
00000008
00000005
FFFFFFFE
00000001
00000000
FFFFFFE5
FFFFFFBD
FFFFFFCC
FFFFFFE6
FFFFFFF4
0000000B
00000008
0000000B
FFFFFFFE
00000004
FFFFFFF7
FFFFFFFF
00000001
FFFFFFF4
FFFFFFD6
FFFFFFE8
FFFFFFFE
FFFFFFFE
00000016
00000011
00000009
00000004
00000003
00000006
0000000C
00000001
00000002
00000000
00000015
00000024
00000022
00000017
FFFFFFF2
00000003
FFFFFFFF
FFFFFFFB
FFFFFFFC
FFFFFFF7
00000000
00000007
0000000C
0000001B
00000014
00000004
00000013
FFFFFFFC
00000002
FFFFFFFD
00000008
FFFFFFF9
00000000
00000000
FFFFFFFC
00000003
0000000B
FFFFFFFD
FFFFFFF5
FFFFFFFB
FFFFFFFD
FFFFFFF8
FFFFFFF7
FFFFFFFE
FFFFFFFD
FFFFFFFB
00000001
FFFFFFF9
FFFFFFFC
FFFFFFF9
FFFFFFF2
FFFFFFF2
FFFFFFF9
FFFFFFF4
FFFFFFF1
FFFFFFFF
FFFFFFF7
00000012
0000000A
00000005
00000003
00000008
FFFFFFF0
FFFFFFF5
FFFFFFF8
FFFFFFF5
00000002
0000000E
0000000F
00000014
00000011
00000012
00000001
FFFFFFF9
FFFFFFED
FFFFFFD5
FFFFFFCE
FFFFFFCF
FFFFFFDE
FFFFFFF3
FFFFFFF5
00000007
00000012
0000000D
FFFFFFFF
FFFFFFD3
FFFFFF86
FFFFFFE1
00000018
00000039
00000030
0000001A
00000009
FFFFFFBB
FFFFFFC3
FFFFFFF4
FFFFFFE5
FFFFFFC4
FFFFFFBF
FFFFFFE1
FFFFFFF3
00000012
0000002B
00000022
00000019
0000000F
00000003
FFFFFFE9
FFFFFFE2
FFFFFFF1
FFFFFFDC
FFFFFFED
FFFFFFEA
FFFFFFEE
FFFFFFFF
0000000E
00000004
00000012
00000019
FFFFFFF5
FFFFFFE9
FFFFFFD1
FFFFFFE1
FFFFFFFB
FFFFFFF1
FFFFFFEB
FFFFFFFB
00000015
0000001F
00000005
FFFFFFFF
FFFFFFF1
FFFFFFC9
FFFFFFF2
FFFFFFF0
FFFFFFFA
FFFFFFFF
FFFFFFF6
FFFFFFF4
00000007
00000010
0000003D
0000001E
FFFFFFDD
FFFFFFE9
FFFFFFDD
FFFFFFF0
FFFFFFEB
FFFFFFF4
FFFFFFFB
FFFFFFF7
FFFFFFFB
0000001B
0000002E
00000024
0000000F
FFFFFFE6
FFFFFFCF
FFFFFFE5
FFFFFFE1
FFFFFFC6
FFFFFFE8
FFFFFFED
FFFFFFFF
00000016
0000002E
00000016
0000000F
FFFFFFF3
FFFFFFDE
FFFFFFB3
FFFFFFE4
FFFFFFE0
FFFFFFB6
FFFFFFD5
FFFFFFD8
00000005
0000001F
00000022
0000000F
FFFFFFF6
FFFFFFDC
FFFFFFD9
FFFFFFE4
FFFFFFE3
FFFFFFEC
FFFFFFEA
FFFFFFE1
00000005
0000000D
00000010
00000003
FFFFFFD9
FFFFFFDB
FFFFFFDD
FFFFFFE2
FFFFFFEF
FFFFFFDE
0000000E
00000012
FFFFFFFF
FFFFFFF0
FFFFFFF3
FFFFFFF7
FFFFFFF0
FFFFFFED
FFFFFFED
FFFFFFF6
00000008
FFFFFFF6
FFFFFFFE
00000022
00000027
FFFFFFFB
00000020
0000000F
00000008
00000008
FFFFFFF9
FFFFFFF6
FFFFFFFD
00000002
0000000A
0000000E
FFFFFFF6
FFFFFFED
