FFFFFF3F
FFFFFFD7
00000055
00000068
00000097
00000062
00000040
FFFFFFFA
FFFFFF60
00000058
00000065
FFFFFF76
0000006D
00000016
FFFFFF65
00000064
00000087
FFFFFF56
0000000A
FFFFFF9A
FFFFFF6A
FFFFFFB1
FFFFFFD2
0000002A
FFFFFF9E
FFFFFFEE
00000034
00000070
0000004F
00000096
FFFFFFE2
00000068
00000059
FFFFFF3E
FFFFFF20
FFFFFFB7
